<unk>	0
<s>	0
</s>	0
▁	-2.50567
▁##	-2.54326
s	-4.26859
a	-4.70802
i	-4.82994
t	-4.88269
e	-4.90089
o	-5.04966
u	-5.08275
n	-5.40947
y	-5.53257
r	-5.54143
k	-5.6556
en	-5.77427
m	-5.81063
d	-5.8144
l	-5.98979
te	-5.99877
an	-6.00494
er	-6.01449
g	-6.08086
h	-6.14662
ta	-6.15166
na	-6.17349
ti	-6.19686
c	-6.20307
z	-6.22563
li	-6.2543
la	-6.30881
p	-6.34282
j	-6.34571
le	-6.37086
ni	-6.37823
in	-6.3795
а	-6.38923
da	-6.39657
ar	-6.40727
ne	-6.42391
re	-6.43226
ra	-6.43579
ka	-6.45196
es	-6.4759
и	-6.48159
b	-6.48377
si	-6.51887
е	-6.55744
as	-6.57252
ja	-6.62694
у	-6.64214
de	-6.65432
ri	-6.66689
ma	-6.68169
ة	-6.6891
ς	-6.71642
v	-6.72965
ko	-6.73614
al	-6.75098
ga	-6.75379
is	-6.76652
je	-6.76752
ch	-6.77749
lo	-6.78385
f	-6.80628
wa	-6.82469
et	-6.83112
т	-6.8567
to	-6.87614
di	-6.88684
st	-6.91576
no	-6.91855
se	-6.92694
▁S	-6.94387
é	-6.94559
us	-6.95088
я	-6.95134
os	-6.95206
ng	-6.97354
ed	-6.98339
w	-6.98487
on	-6.99081
sa	-6.99893
д	-7.00236
ba	-7.00907
ha	-7.01734
ing	-7.04359
í	-7.04719
ki	-7.04732
zi	-7.0484
м	-7.04867
ku	-7.05286
me	-7.06402
ro	-7.07151
ם	-7.09057
▁A	-7.09524
ke	-7.09953
с	-7.1089
ي	-7.11419
va	-7.12013
it	-7.1324
ce	-7.14426
ی	-7.16067
ge	-7.16716
р	-7.16911
о	-7.17247
й	-7.17843
el	-7.18239
ir	-7.18397
at	-7.18518
ci	-7.18939
mi	-7.20747
ve	-7.20859
ur	-7.21945
za	-7.24113
x	-7.24191
л	-7.24687
х	-7.25133
il	-7.25227
н	-7.25433
vi	-7.26651
к	-7.27263
do	-7.30307
ж	-7.30933
ы	-7.30977
▁di	-7.31455
на	-7.31593
um	-7.3361
kan	-7.34374
ho	-7.3461
г	-7.3524
▁ku	-7.35371
or	-7.35374
▁C	-7.35986
tu	-7.38101
we	-7.38426
q	-7.38671
ze	-7.38816
em	-7.38863
ка	-7.40245
ه	-7.40436
م	-7.40765
ш	-7.40831
ā	-7.42149
та	-7.42592
▁ma	-7.42765
ca	-7.42897
lu	-7.4341
و	-7.44246
ek	-7.45369
á	-7.45401
mo	-7.45683
ן	-7.45812
ا	-7.45889
ن	-7.46641
ju	-7.47145
am	-7.47797
bi	-7.49453
un	-7.49634
ul	-7.49639
ji	-7.49696
ak	-7.50377
▁M	-7.51676
ya	-7.52088
і	-7.5218
▁P	-7.52223
▁E	-7.52595
ت	-7.53028
gi	-7.53247
▁be	-7.53703
id	-7.54417
ה	-7.54525
ни	-7.54716
ie	-7.54972
да	-7.55558
ä	-7.56991
š	-7.57128
ten	-7.57606
du	-7.5933
▁T	-7.60392
в	-7.60487
▁po	-7.60705
ل	-7.61116
▁I	-7.61524
▁m	-7.62357
be	-7.62646
ter	-7.62913
د	-7.6534
man	-7.66094
▁D	-7.66231
п	-7.66768
з	-7.66808
gu	-7.67409
pa	-7.6785
▁B	-7.68184
▁K	-7.68487
ru	-7.68537
ა	-7.68752
co	-7.68806
go	-7.68903
he	-7.69718
hi	-7.70508
ش	-7.7101
▁se	-7.71084
ú	-7.71397
ć	-7.71784
bu	-7.71888
▁N	-7.7216
ת	-7.722
▁по	-7.72204
ი	-7.72534
ia	-7.72938
▁ה	-7.73081
▁ال	-7.73336
ات	-7.73342
α	-7.73586
▁na	-7.73616
न	-7.73698
ся	-7.74086
ó	-7.74466
▁fa	-7.7481
ла	-7.74912
▁م	-7.75067
но	-7.75608
י	-7.75882
▁re	-7.76112
lar	-7.76778
ю	-7.77077
س	-7.7749
ի	-7.77904
ч	-7.78842
ol	-7.79165
pe	-7.79248
ê	-7.79829
im	-7.80149
ს	-7.80461
ли	-7.80769
ă	-7.8108
▁sa	-7.8162
ը	-7.81818
▁O	-7.82323
ad	-7.82474
ana	-7.83122
wi	-7.83325
не	-7.83343
ly	-7.83839
om	-7.83886
▁de	-7.83889
▁pa	-7.83972
fa	-7.8401
ʻ	-7.84372
mu	-7.84698
sta	-7.85158
vo	-7.85243
po	-7.85434
ina	-7.85444
ти	-7.8555
ž	-7.85638
ye	-7.85811
▁me	-7.8589
്	-7.86303
га	-7.87077
ny	-7.87185
der	-7.87573
ر	-7.88652
bo	-7.90569
क	-7.90585
ver	-7.90805
ь	-7.90927
ра	-7.91233
ą	-7.91906
ty	-7.92372
ş	-7.93224
ት	-7.93327
▁su	-7.93414
den	-7.93667
ment	-7.93747
ва	-7.93757
fi	-7.93798
ल	-7.93902
▁H	-7.93966
jo	-7.94507
▁b	-7.9467
nu	-7.94819
े	-7.95287
▁ge	-7.95595
র	-7.96176
ut	-7.9633
▁F	-7.96534
ки	-7.97163
ন	-7.97299
▁h	-7.97339
ा	-7.98091
ik	-7.989
ी	-7.99284
▁za	-7.99966
ን	-8.00052
▁ver	-8.00557
▁v	-8.00638
ны	-8.00757
▁mo	-8.01105
र	-8.01477
ü	-8.02539
th	-8.02705
ب	-8.02859
ý	-8.0291
▁G	-8.03356
ል	-8.03359
ის	-8.03367
त	-8.03457
▁ba	-8.04465
ry	-8.04635
▁U	-8.04689
gen	-8.04699
▁ت	-8.04895
ita	-8.06312
nie	-8.06577
yo	-8.07195
zo	-8.07244
oj	-8.07333
ം	-8.07583
ہ	-8.08179
▁k	-8.09085
▁L	-8.09352
ে	-8.09448
ում	-8.09504
ov	-8.10295
▁so	-8.10403
ada	-8.11082
ç	-8.11157
ов	-8.11161
men	-8.11277
то	-8.11822
nt	-8.12098
ε	-8.1225
▁d	-8.12808
έ	-8.12913
ig	-8.12929
hu	-8.12966
▁ب	-8.12974
ع	-8.13056
lik	-8.13262
те	-8.13316
▁bi	-8.13526
ck	-8.13552
lan	-8.13754
ní	-8.13758
ות	-8.14149
ę	-8.14258
▁ne	-8.14474
ot	-8.14681
ang	-8.15424
ine	-8.16214
ма	-8.16225
ය	-8.16234
ο	-8.16747
ом	-8.16808
▁V	-8.17176
ے	-8.17182
nya	-8.17496
ų	-8.17597
▁ke	-8.17652
ف	-8.1769
à	-8.17854
ите	-8.17869
è	-8.18161
pi	-8.18477
▁ho	-8.18603
ning	-8.19115
ven	-8.19363
मा	-8.19385
ə	-8.1951
ste	-8.19574
ц	-8.19664
▁per	-8.20157
▁Re	-8.20273
▁ka	-8.20293
ು	-8.2033
tion	-8.2053
č	-8.20552
ى	-8.20794
ம்	-8.21073
ен	-8.21358
▁mu	-8.2173
ë	-8.21842
व	-8.22202
б	-8.22222
ud	-8.22275
ն	-8.22477
tra	-8.22574
म	-8.22801
▁pro	-8.23256
ર	-8.23335
han	-8.23632
▁Ma	-8.23791
ky	-8.23845
स	-8.24029
ج	-8.24102
▁mi	-8.24561
ele	-8.24936
sh	-8.25019
ం	-8.25157
▁ber	-8.25197
ite	-8.25412
▁R	-8.25418
ं	-8.2543
ම	-8.25638
▁do	-8.25878
▁W	-8.26137
ز	-8.26374
cu	-8.26827
▁con	-8.2689
▁vi	-8.26973
▁с	-8.27134
nda	-8.27401
sti	-8.27795
от	-8.27979
▁p	-8.28047
ant	-8.28055
î	-8.29182
ان	-8.2921
ો	-8.29241
ન	-8.29356
od	-8.29729
ле	-8.2987
ло	-8.30217
ent	-8.30561
nd	-8.30667
ले	-8.31066
ation	-8.31506
▁f	-8.31598
▁le	-8.31887
을	-8.31907
▁за	-8.3247
▁pe	-8.32934
ри	-8.33562
▁Pa	-8.33645
ми	-8.33686
▁g	-8.33726
ok	-8.33941
ali	-8.34053
ż	-8.34451
ren	-8.34699
ದ	-8.34914
▁in	-8.35139
ej	-8.35294
ger	-8.35702
ди	-8.35798
tor	-8.36074
ό	-8.36116
ran	-8.36292
tar	-8.36325
ini	-8.36634
ach	-8.36987
ו	-8.37377
▁Ba	-8.37475
dan	-8.37657
де	-8.37896
▁si	-8.38177
né	-8.38214
ні	-8.3858
ም	-8.3869
ਰ	-8.38885
ι	-8.3894
res	-8.39679
ат	-8.39711
▁c	-8.39727
ν	-8.39732
다	-8.39734
▁sp	-8.39744
ку	-8.39809
▁Se	-8.39858
ere	-8.39955
ар	-8.40202
che	-8.40491
ા	-8.40702
▁на	-8.40782
zu	-8.40804
vu	-8.41131
▁الم	-8.41681
era	-8.41706
▁to	-8.41764
▁ob	-8.41942
▁ב	-8.4198
cha	-8.42024
ll	-8.42036
ව	-8.42362
▁bo	-8.42472
ī	-8.42508
ем	-8.42565
aj	-8.43748
ك	-8.44732
को	-8.4485
ق	-8.45289
ет	-8.4539
ρ	-8.45422
ler	-8.45504
▁al	-8.45564
ў	-8.45698
▁ha	-8.45802
پ	-8.45835
dy	-8.45838
▁pre	-8.46256
이	-8.46632
ज	-8.46643
ক	-8.46814
io	-8.46944
ά	-8.47016
σ	-8.47095
ть	-8.47232
len	-8.47286
▁Na	-8.4737
υ	-8.47436
▁Ka	-8.47445
iti	-8.47499
tan	-8.47523
ि	-8.47606
ou	-8.47615
▁pi	-8.4776
▁wa	-8.47955
▁pu	-8.48266
യ	-8.48693
▁fi	-8.48907
ା	-8.48973
ado	-8.49413
ira	-8.49448
ць	-8.49591
▁ko	-8.49628
wo	-8.49706
ன்	-8.49788
ר	-8.49886
प	-8.49903
▁kon	-8.50016
isi	-8.50038
ung	-8.50103
▁Sa	-8.50244
či	-8.50251
que	-8.5051
▁op	-8.50765
▁La	-8.50857
▁no	-8.50896
ic	-8.50947
द	-8.51523
ે	-8.51534
ή	-8.51813
▁Ha	-8.52503
chi	-8.52506
ର	-8.52725
का	-8.52742
ص	-8.52885
న	-8.53133
ban	-8.53219
া	-8.53454
sz	-8.53469
▁va	-8.53517
▁for	-8.53569
ল	-8.53683
ా	-8.53936
ben	-8.53965
ط	-8.54019
are	-8.54187
ں	-8.54254
ט	-8.5437
น	-8.54495
▁ל	-8.54596
▁Po	-8.54648
▁De	-8.54717
ко	-8.54781
ers	-8.54821
ě	-8.54995
ча	-8.55221
ड	-8.55465
ah	-8.5576
ስ	-8.5579
ত	-8.55857
ili	-8.5593
iz	-8.56069
лі	-8.56115
ken	-8.56317
▁Be	-8.56352
ð	-8.56427
го	-8.56456
ের	-8.56467
▁tu	-8.56643
ber	-8.56684
ల	-8.56801
gan	-8.56977
य	-8.57498
les	-8.5762
வ	-8.57638
▁co	-8.58259
▁Mo	-8.58473
ata	-8.58638
ৰ	-8.58815
ť	-8.58853
ро	-8.5887
fe	-8.58891
의	-8.58914
au	-8.59015
ff	-8.59124
▁ta	-8.59266
og	-8.59625
ого	-8.597
ton	-8.59729
ö	-8.59801
ты	-8.59814
خ	-8.59994
ви	-8.60023
து	-8.60165
μ	-8.60426
▁ki	-8.60468
ag	-8.60646
ु	-8.60849
ಯ	-8.60868
ата	-8.61079
▁आ	-8.61105
ling	-8.61263
eg	-8.61582
чи	-8.61721
ib	-8.61799
ı	-8.61875
ә	-8.62238
ਲ	-8.62276
લ	-8.62296
adh	-8.62333
ው	-8.62554
▁at	-8.62637
▁bu	-8.63045
λ	-8.63181
ક	-8.63333
tur	-8.63367
▁pri	-8.63437
min	-8.63631
ab	-8.63781
ль	-8.63923
에	-8.64154
ని	-8.64197
ł	-8.64338
ना	-8.64341
ી	-8.64432
κ	-8.64443
ė	-8.6456
mp	-8.64917
ile	-8.64923
ס	-8.651
ር	-8.65143
mba	-8.65333
ೆ	-8.65444
ರ	-8.6551
ama	-8.65606
ụ	-8.65649
ska	-8.65665
▁Le	-8.65706
ži	-8.6582
▁С	-8.65828
ಿ	-8.65923
án	-8.6648
land	-8.66907
▁מ	-8.66936
▁س	-8.67024
yi	-8.67192
ր	-8.67197
ий	-8.67504
ker	-8.67879
ವ	-8.67978
by	-8.68026
▁z	-8.68281
ും	-8.68407
▁ter	-8.68445
મ	-8.68925
fu	-8.69068
ు	-8.69086
η	-8.6927
N	-8.69332
ो	-8.69441
▁ا	-8.69499
kin	-8.69547
ħ	-8.69711
න	-8.69779
ò	-8.69942
▁پ	-8.70016
ې	-8.70088
▁Vi	-8.7009
ер	-8.70098
տ	-8.70135
ू	-8.70166
ম	-8.70314
ता	-8.70444
▁An	-8.70529
ez	-8.70658
ster	-8.70683
մ	-8.70737
ै	-8.70808
▁par	-8.70942
త	-8.71103
ක	-8.71216
ên	-8.71264
▁የ	-8.71311
ور	-8.71362
val	-8.71365
ول	-8.71544
yn	-8.71581
T	-8.7172
্	-8.71954
че	-8.72019
▁iz	-8.72167
им	-8.72475
jen	-8.72566
tel	-8.72567
ъ	-8.72706
▁ن	-8.72738
▁du	-8.72741
ийн	-8.7284
ర	-8.72889
ने	-8.7293
ել	-8.73063
inn	-8.73252
ट	-8.73256
ර	-8.73269
γ	-8.73305
ру	-8.73333
ர	-8.73865
ੇ	-8.73885
он	-8.73895
ند	-8.73965
ē	-8.73991
ί	-8.74052
માં	-8.74094
ende	-8.74112
ק	-8.74188
▁со	-8.74383
rin	-8.74422
ਾ	-8.74505
ción	-8.74531
▁при	-8.74558
▁з	-8.74626
വ	-8.74752
lig	-8.74816
ئ	-8.74921
ия	-8.74931
ima	-8.74962
ան	-8.75013
ist	-8.75029
க	-8.75039
ion	-8.7508
ει	-8.75092
mas	-8.75339
ला	-8.75428
ત	-8.75548
ды	-8.7562
ύ	-8.75743
ל	-8.76049
વા	-8.76138
ị	-8.76158
ан	-8.76165
ական	-8.76302
ට	-8.76362
▁men	-8.76382
ал	-8.76514
ү	-8.76567
ū	-8.76783
ில்	-8.76793
▁Z	-8.76957
▁Ro	-8.77002
▁vo	-8.77005
▁he	-8.77098
▁Al	-8.7717
ба	-8.772
▁ca	-8.77311
▁od	-8.77352
ო	-8.77551
▁da	-8.77553
ting	-8.7757
É	-8.77767
ح	-8.77912
▁про	-8.77918
če	-8.78046
ona	-8.78047
ale	-8.78084
sha	-8.78168
▁в	-8.78221
가	-8.78415
లో	-8.78503
▁tra	-8.78617
ów	-8.78631
▁hu	-8.7887
▁fe	-8.78991
shi	-8.79147
ọ	-8.79172
▁gu	-8.79183
ня	-8.79253
େ	-8.79289
▁J	-8.79334
yan	-8.79497
ér	-8.79649
כ	-8.79954
их	-8.80123
nia	-8.80158
ske	-8.80171
ال	-8.80405
غ	-8.80409
கள்	-8.8053
per	-8.8061
ő	-8.80615
tal	-8.8067
red	-8.8072
ой	-8.80897
ක්	-8.81044
ке	-8.81049
는	-8.81339
를	-8.81356
ض	-8.81398
nde	-8.81468
ida	-8.815
ල	-8.81559
ര	-8.8169
ಾ	-8.81823
లు	-8.81892
ھ	-8.81914
és	-8.8194
nye	-8.81948
Ñ	-8.82002
S	-8.82087
ara	-8.82374
ੀ	-8.82439
თ	-8.82779
ു	-8.82808
▁w	-8.82821
pu	-8.82823
å	-8.82983
्	-8.83003
च	-8.83055
ա	-8.83064
ე	-8.83115
asi	-8.8333
ਨ	-8.83464
ση	-8.83507
ẹ	-8.83648
var	-8.83935
ей	-8.83948
▁Di	-8.83952
▁अ	-8.8396
ත	-8.8399
▁до	-8.84122
ф	-8.84336
▁Ne	-8.84367
ି	-8.84461
َ	-8.84554
ვ	-8.84593
▁Ra	-8.84628
ల్	-8.84663
ω	-8.84677
▁li	-8.84688
స్	-8.84843
ാ	-8.85003
ନ	-8.85343
des	-8.85354
▁tr	-8.85493
ks	-8.85723
▁அ	-8.85724
ati	-8.85772
let	-8.85833
кі	-8.85928
μα	-8.86
ב	-8.8603
ী	-8.86148
iya	-8.86186
би	-8.86201
ši	-8.8631
ам	-8.86339
ک	-8.86432
æ	-8.86657
son	-8.86686
lla	-8.86764
ін	-8.86788
ari	-8.86816
ों	-8.86839
▁ro	-8.8684
▁Da	-8.86886
ো	-8.86907
ap	-8.8694
▁ch	-8.86959
ለ	-8.87135
са	-8.87259
ski	-8.87793
sto	-8.87938
ก	-8.87946
▁Ta	-8.88034
▁Me	-8.88036
си	-8.88154
ار	-8.88215
mer	-8.88232
▁Co	-8.88312
tik	-8.88375
ு	-8.88396
ి	-8.88458
ala	-8.88654
اء	-8.88758
ndi	-8.88964
ში	-8.88967
▁ل	-8.89025
rá	-8.89051
ок	-8.89057
▁In	-8.89234
tha	-8.89318
▁Ja	-8.8957
ры	-8.89572
ర్	-8.89635
nta	-8.89761
ων	-8.89817
ରେ	-8.90011
▁Bo	-8.90053
ি	-8.90089
M	-8.90131
▁comp	-8.90249
▁Do	-8.90255
A	-8.90285
ები	-8.90471
ре	-8.90742
nik	-8.90747
ise	-8.90763
ля	-8.90879
ያ	-8.90935
▁ra	-8.91096
▁Ar	-8.9136
во	-8.91391
met	-8.91494
ին	-8.91553
fo	-8.91688
ika	-8.91711
ના	-8.91751
න්	-8.91769
ів	-8.91782
▁la	-8.91928
دا	-8.9198
ين	-8.92345
の	-8.92349
اب	-8.92448
▁আ	-8.92458
ু	-8.92486
port	-8.92497
ல்	-8.92681
ών	-8.92764
san	-8.92798
wer	-8.93024
ମ	-8.93138
ил	-8.93203
ब	-8.93269
▁ru	-8.93281
ын	-8.93433
nga	-8.93449
ить	-8.9346
ই	-8.93687
hin	-8.93788
ന്	-8.93904
వ	-8.94005
چ	-8.94007
ше	-8.94028
ብ	-8.94033
ин	-8.94057
ме	-8.94165
cia	-8.94264
უ	-8.94277
dd	-8.94378
wan	-8.94558
Y	-8.94797
გ	-8.9481
▁Li	-8.94942
▁О	-8.95017
▁Mu	-8.95033
기	-8.95045
ಮ	-8.95057
ಕ	-8.95292
bar	-8.95368
ih	-8.95491
한	-8.95512
ela	-8.95571
ების	-8.95722
2	-8.95867
ô	-8.95982
қ	-8.9604
ст	-8.96264
▁hi	-8.96267
▁А	-8.96375
ft	-8.96412
uje	-8.96481
ח	-8.96503
প	-8.96577
ј	-8.96742
ல	-8.96811
ਮ	-8.96884
ár	-8.9691
ś	-8.9694
ා	-8.9697
ál	-8.9702
ذ	-8.97099
▁sam	-8.97168
χ	-8.97175
▁أ	-8.9718
த்த	-8.97293
kar	-8.97476
ست	-8.97606
لا	-8.97637
ör	-8.97666
φ	-8.9772
ev	-8.97729
ല	-8.97762
H	-8.97766
ਤ	-8.97854
ně	-8.97897
ң	-8.97958
ları	-8.98053
ս	-8.98112
ну	-8.98234
jn	-8.98279
দ	-8.98281
მა	-8.98282
▁Ho	-8.98509
ד	-8.98518
ര്	-8.98542
اد	-8.98551
ម	-8.98697
ор	-8.98775
τε	-8.98802
ista	-8.98803
ത	-8.98831
del	-8.98939
té	-8.99003
zion	-8.99108
▁об	-8.99109
ث	-8.99134
ար	-8.992
ura	-8.99216
çã	-8.99225
▁af	-8.99472
dir	-8.99708
τ	-8.99757
сы	-8.99808
vis	-8.99814
▁स	-8.9982
نا	-8.99824
ais	-8.99886
▁Б	-8.99936
ய	-8.99939
dar	-9.00003
▁Lo	-9.00168
య	-9.00255
му	-9.00279
nes	-9.00329
מי	-9.00362
ong	-9.00626
եր	-9.00626
য়	-9.00627
▁በ	-9.00653
ේ	-9.00679
ulu	-9.00699
tre	-9.00725
log	-9.00811
vel	-9.00815
െ	-9.00879
het	-9.00893
▁th	-9.00998
ec	-9.01066
ា	-9.01391
tsa	-9.01484
ных	-9.01491
▁To	-9.01515
ך	-9.01613
R	-9.01702
▁cu	-9.01705
ხ	-9.01831
stra	-9.0185
π	-9.01929
▁lu	-9.02085
▁x	-9.02112
▁ad	-9.02134
lá	-9.02149
ג	-9.02193
ह	-9.02199
▁Ge	-9.02232
▁ма	-9.02336
ா	-9.02339
D	-9.02449
L	-9.0263
හ	-9.02873
keun	-9.02944
lin	-9.03045
gar	-9.03046
ció	-9.0307
qu	-9.03092
bra	-9.03262
ů	-9.03292
U	-9.03521
ז	-9.03602
ร	-9.03617
tin	-9.03635
uk	-9.03737
ன	-9.03763
nja	-9.03776
ട	-9.03777
ग	-9.03817
ire	-9.0406
ಗಳ	-9.04069
op	-9.04152
▁Ke	-9.04299
▁из	-9.04312
▁प	-9.04328
ይ	-9.0437
ente	-9.04452
ون	-9.04497
isa	-9.04576
že	-9.0458
ित	-9.04652
گ	-9.04737
ግ	-9.04787
ndo	-9.04862
mbi	-9.04867
რ	-9.04895
elle	-9.04928
ంది	-9.05067
ria	-9.05172
lle	-9.05199
▁So	-9.05255
ld	-9.05256
gy	-9.0541
зи	-9.05412
kt	-9.05489
iga	-9.05489
वा	-9.05505
ನ್ನು	-9.05559
ું	-9.05567
van	-9.05689
▁ap	-9.05707
▁pos	-9.05865
ע	-9.05878
dig	-9.05988
▁вы	-9.06039
ја	-9.06102
še	-9.06103
▁و	-9.06301
श	-9.06364
ου	-9.06415
지	-9.06421
ува	-9.06469
▁К	-9.06502
▁pag	-9.06808
є	-9.0686
्या	-9.06911
▁бол	-9.06949
ದೆ	-9.07
ø	-9.07182
க்க	-9.07225
ги	-9.07308
än	-9.0732
est	-9.07474
ୁ	-9.07478
rea	-9.07629
ring	-9.07703
C	-9.07712
▁Su	-9.07828
ོ	-9.07883
ន	-9.079
▁jo	-9.0797
న్	-9.07998
▁X	-9.08396
lang	-9.08403
sel	-9.0854
į	-9.08643
cht	-9.08681
▁Ga	-9.08697
▁Pro	-9.08778
▁Ku	-9.08819
cie	-9.08889
ས	-9.08926
ული	-9.08937
B	-9.0915
qa	-9.09219
ту	-9.09309
end	-9.09317
syon	-9.09341
▁א	-9.0943
ад	-9.09448
ých	-9.09523
dh	-9.09637
ین	-9.09716
ታ	-9.09769
ду	-9.09829
und	-9.09902
ού	-9.09975
ак	-9.10008
ש	-9.10135
ах	-9.10161
िक	-9.10249
aga	-9.10322
uta	-9.10638
ప	-9.10804
▁Д	-9.10832
ቀ	-9.10881
ят	-9.10899
ний	-9.10928
fer	-9.11015
ير	-9.11033
nje	-9.11079
за	-9.11135
θ	-9.11176
▁Te	-9.11212
վ	-9.11224
жа	-9.11268
ారు	-9.113
ate	-9.11322
▁प्र	-9.11372
א	-9.11463
W	-9.11592
mente	-9.1162
nen	-9.11981
one	-9.12022
ron	-9.12036
മ	-9.12046
ব	-9.1211
ու	-9.12117
િ	-9.12162
rt	-9.12225
ล	-9.12303
መ	-9.12311
▁fo	-9.12327
ما	-9.12333
ม	-9.12428
dzi	-9.12543
ол	-9.1258
고	-9.12638
▁სა	-9.1273
କ	-9.12793
мен	-9.12951
ën	-9.13031
uri	-9.13131
xa	-9.13159
ert	-9.13168
lí	-9.13329
▁Ju	-9.13369
if	-9.13374
ard	-9.13493
▁Ko	-9.13603
ве	-9.137
క	-9.13797
ری	-9.13809
▁అ	-9.13907
▁Fa	-9.13912
▁ri	-9.13924
▁gi	-9.14018
კ	-9.14115
▁Wa	-9.14267
pan	-9.14321
же	-9.14339
ци	-9.14377
це	-9.14556
τα	-9.14609
▁ama	-9.14672
ام	-9.14686
ும்	-9.14697
ി	-9.14966
мо	-9.15088
ön	-9.1516
ið	-9.1525
▁sh	-9.15495
క్	-9.15498
्य	-9.15567
ટ	-9.15569
ረ	-9.1557
ክ	-9.15602
▁nga	-9.15629
â	-9.15633
▁мо	-9.15759
ர்	-9.15957
ِ	-9.15969
kat	-9.15994
కు	-9.16088
mos	-9.16189
ली	-9.16203
▁ve	-9.16325
lı	-9.16349
მ	-9.16555
▁Pe	-9.16776
ገ	-9.16986
က	-9.17
nan	-9.17091
▁Ver	-9.17132
▁Y	-9.17186
nis	-9.17269
ё	-9.17306
▁mal	-9.17387
▁Jo	-9.17439
лар	-9.17452
ც	-9.17454
▁av	-9.17513
ී	-9.17548
▁pen	-9.17652
▁ப	-9.17737
ೇ	-9.17819
tet	-9.1804
▁ਸ	-9.18047
▁ме	-9.18054
ակ	-9.18059
▁අ	-9.18129
eb	-9.18216
ый	-9.18235
रा	-9.18243
୍	-9.18337
тер	-9.18405
ത്ത	-9.18427
▁не	-9.18552
F	-9.18616
ด	-9.18648
ді	-9.18713
G	-9.18719
ക്ക	-9.18791
жи	-9.18875
ക	-9.18922
ón	-9.19015
ble	-9.19025
zen	-9.19042
ٹ	-9.19047
hat	-9.19061
▁ब	-9.19063
wu	-9.19116
ют	-9.19208
▁lo	-9.19223
qui	-9.19252
ip	-9.19255
ण	-9.1926
mm	-9.19371
ներ	-9.19505
xe	-9.19572
my	-9.19617
▁Ti	-9.19643
ության	-9.199
▁Bu	-9.19915
រ	-9.19941
ill	-9.19973
▁па	-9.19993
ස	-9.20076
ato	-9.20087
▁В	-9.20121
ία	-9.20264
ை	-9.20474
ге	-9.20525
ත්	-9.20555
▁क	-9.20662
▁ש	-9.20675
்	-9.20707
▁ac	-9.20902
õ	-9.21093
ell	-9.21113
ով	-9.21148
ி	-9.21184
cy	-9.21206
▁com	-9.21244
ras	-9.21427
▁б	-9.21452
գ	-9.21554
ски	-9.21565
ట	-9.21565
▁dis	-9.21595
▁3	-9.21636
ure	-9.2164
נה	-9.21653
ner	-9.2177
lt	-9.21779
ಗ	-9.21789
ో	-9.21843
pre	-9.21951
מ	-9.21974
ша	-9.21986
▁Sp	-9.21989
ted	-9.22047
K	-9.22056
ను	-9.22117
ි	-9.22139
ila	-9.22244
ца	-9.22257
ध	-9.22282
се	-9.22337
ül	-9.22378
ୀ	-9.22634
ide	-9.22684
вер	-9.22751
V	-9.22796
▁pod	-9.22849
ica	-9.22889
▁ab	-9.22923
ão	-9.22934
сь	-9.23011
dos	-9.23054
గ	-9.23071
פ	-9.23089
ës	-9.23114
▁አ	-9.23135
ante	-9.23183
με	-9.23229
ket	-9.23274
1	-9.23363
أ	-9.23536
С	-9.23584
▁آ	-9.23591
▁đ	-9.23611
પ	-9.23681
vol	-9.23694
▁Th	-9.237
ጥ	-9.23702
ער	-9.23704
ส	-9.23724
인	-9.23732
স	-9.23944
ğ	-9.23998
▁wi	-9.24039
kel	-9.24044
vá	-9.2415
imo	-9.24285
▁ع	-9.24293
ດ	-9.24382
▁ба	-9.24501
tta	-9.24598
ole	-9.24685
▁М	-9.24688
ੋ	-9.24853
är	-9.25017
ና	-9.25032
át	-9.25055
த	-9.25195
▁mar	-9.25312
ın	-9.25333
ಲ	-9.2539
▁pra	-9.25493
ito	-9.25525
tir	-9.25662
mbo	-9.25675
ного	-9.25691
ட	-9.25754
ии	-9.25772
વ	-9.25833
▁chi	-9.26052
اس	-9.26054
రి	-9.26068
eri	-9.26073
сти	-9.26083
્	-9.26152
ub	-9.2621
▁kal	-9.2633
în	-9.26361
은	-9.26372
leri	-9.26427
ғы	-9.26484
▁bar	-9.26505
ே	-9.26506
об	-9.2653
hla	-9.2654
ની	-9.26542
dor	-9.26568
לי	-9.26571
av	-9.26672
iv	-9.26721
▁2	-9.26725
▁ک	-9.26759
დ	-9.26877
▁Bi	-9.26974
3	-9.26991
σε	-9.27007
ություն	-9.27019
▁ut	-9.27115
יי	-9.2728
ድ	-9.27341
▁uku	-9.27359
ці	-9.27384
נו	-9.27662
għ	-9.27693
ces	-9.27803
kom	-9.27897
E	-9.2799
ە	-9.27993
ì	-9.28065
▁des	-9.28091
▁dé	-9.28115
ges	-9.28129
ement	-9.28361
ian	-9.28376
ish	-9.28397
mit	-9.2849
জ	-9.28503
шы	-9.28578
rat	-9.28604
ਕ	-9.28666
tat	-9.28677
ҳ	-9.28947
up	-9.28981
▁val	-9.29026
iem	-9.29031
αν	-9.29086
din	-9.29178
iki	-9.29192
iza	-9.29356
ట్	-9.29399
▁Mar	-9.2942
เ	-9.29479
か	-9.29509
ný	-9.29535
▁meng	-9.29588
▁Lu	-9.29851
vad	-9.29859
र्	-9.29935
ход	-9.29965
ማ	-9.29967
una	-9.30021
tos	-9.30027
▁4	-9.30057
▁ح	-9.30116
ros	-9.30135
ად	-9.30228
▁No	-9.30234
ай	-9.30264
ే	-9.30326
able	-9.30358
▁ಅ	-9.3042
▁ش	-9.30438
թ	-9.30459
mar	-9.30463
rit	-9.30465
리	-9.30468
ତ	-9.30477
רי	-9.30545
ത്	-9.30642
эл	-9.30697
mon	-9.30735
اف	-9.30755
▁He	-9.30787
mat	-9.30876
ct	-9.30893
sion	-9.31018
▁Pre	-9.3108
ந்த	-9.31226
▁ج	-9.31266
бо	-9.31319
ит	-9.31367
ной	-9.31452
tiv	-9.31463
ación	-9.31535
בי	-9.31587
ade	-9.31627
▁im	-9.31709
▁5	-9.31725
ോ	-9.31757
ራ	-9.31791
റ	-9.31882
ksi	-9.31924
נ	-9.32051
ουν	-9.32103
▁Gu	-9.32126
ret	-9.32261
ք	-9.32275
ጠ	-9.32293
্য	-9.32328
▁mag	-9.32402
ए	-9.32456
▁pan	-9.32527
tud	-9.32612
ți	-9.32808
ør	-9.32907
је	-9.32944
ද	-9.32963
lich	-9.33001
▁Si	-9.33007
pen	-9.33012
tzen	-9.33018
ego	-9.33048
ска	-9.33097
tso	-9.33119
▁ச	-9.33192
ons	-9.33248
ក	-9.33249
cer	-9.3329
idade	-9.3329
ൻ	-9.33295
bh	-9.33295
ň	-9.33394
▁Ki	-9.33404
ோ	-9.33443
ُ	-9.33516
igh	-9.33587
தி	-9.33711
ris	-9.33861
ham	-9.33862
า	-9.33948
ید	-9.33974
▁kar	-9.34042
тар	-9.34048
ties	-9.34048
▁वि	-9.34085
imi	-9.34103
лу	-9.34149
শ	-9.34177
ө	-9.34207
ප	-9.3431
ис	-9.34349
ел	-9.34438
▁ق	-9.34465
bor	-9.34494
ೂ	-9.34518
oma	-9.3457
në	-9.34596
દ	-9.34609
▁ya	-9.34628
int	-9.34647
nek	-9.34661
ça	-9.34667
তে	-9.34723
る	-9.34735
ù	-9.34739
ተ	-9.34878
רו	-9.34895
atu	-9.34978
ano	-9.34995
stu	-9.35081
ർ	-9.35142
▁wy	-9.35216
I	-9.35229
oni	-9.35269
ға	-9.353
ਿ	-9.35334
stan	-9.35362
と	-9.35465
▁Per	-9.35562
ന	-9.35568
use	-9.35579
ек	-9.35704
ийг	-9.35901
▁መ	-9.36029
ー	-9.36192
ώ	-9.36205
бы	-9.36246
bb	-9.36333
jer	-9.36348
▁vy	-9.36364
▁жа	-9.36532
ෙ	-9.36539
dia	-9.36539
pp	-9.36558
bat	-9.36637
bil	-9.36697
mak	-9.3676
ola	-9.36807
ད	-9.36945
▁Т	-9.36952
ూ	-9.36954
որ	-9.36996
ਸ	-9.37006
дан	-9.3707
β	-9.37077
ши	-9.37085
ур	-9.37121
ນ	-9.37332
സ്	-9.37364
な	-9.37389
نى	-9.37399
▁8	-9.37437
שי	-9.37478
ಸ್	-9.37498
▁Ni	-9.37523
sin	-9.37584
시	-9.37683
ठ	-9.3782
▁ré	-9.37842
uar	-9.37862
ሰ	-9.37863
ರ್	-9.38037
ora	-9.38041
▁nu	-9.38061
గా	-9.38085
kor	-9.38164
ction	-9.38172
ನ	-9.38195
▁Mi	-9.38207
▁exp	-9.38255
nom	-9.38279
ნ	-9.38283
ბ	-9.38283
ula	-9.38332
로	-9.38441
어	-9.38443
лы	-9.3845
▁म	-9.38625
сан	-9.38647
vat	-9.38697
▁հ	-9.38738
▁ak	-9.38974
నికి	-9.38977
▁இ	-9.39047
రు	-9.39076
hy	-9.39128
ች	-9.39152
ೀ	-9.39163
ף	-9.39201
ກ	-9.39393
cio	-9.39473
▁الت	-9.39522
të	-9.39649
wy	-9.39692
ob	-9.39795
ła	-9.39836
જ	-9.39916
ነ	-9.39927
და	-9.39995
▁ex	-9.40009
يد	-9.40116
▁ي	-9.40202
дар	-9.40253
ደ	-9.40256
تى	-9.40381
▁Tu	-9.40424
▁go	-9.40425
tro	-9.40448
ფ	-9.40452
▁Ca	-9.40531
ո	-9.40556
▁imp	-9.40615
ात	-9.4062
▁Con	-9.40668
ባ	-9.40687
ሉ	-9.40734
ür	-9.40812
cho	-9.40995
inen	-9.41025
ման	-9.41025
dra	-9.41107
iri	-9.41183
ਾਂ	-9.41287
тор	-9.4137
tter	-9.41397
්	-9.41452
ต	-9.41487
ར	-9.41508
ӣ	-9.41509
ሳ	-9.41509
ding	-9.4156
▁cha	-9.41726
də	-9.4173
ི	-9.41732
ْ	-9.41739
цца	-9.41751
ੁ	-9.41773
تی	-9.41792
لی	-9.41798
pun	-9.41958
чы	-9.42024
は	-9.42039
▁pla	-9.42084
ков	-9.4214
ិ	-9.42152
▁ف	-9.42188
▁ви	-9.42255
▁ప	-9.42259
ખ	-9.4229
▁അ	-9.42301
▁sta	-9.4232
▁Ru	-9.42329
tura	-9.42386
ট	-9.42419
▁Qu	-9.42462
ני	-9.42474
ami	-9.42535
▁6	-9.42647
art	-9.42715
ார்	-9.42773
نىڭ	-9.42779
ائ	-9.4278
▁ज	-9.42838
ix	-9.42875
ላ	-9.42992
ิ	-9.43035
гі	-9.4307
ី	-9.43073
قا	-9.43117
ம	-9.43162
▁خ	-9.43212
▁الأ	-9.43272
con	-9.43283
nih	-9.43354
ۇ	-9.43418
nti	-9.43463
ás	-9.43491
▁от	-9.436
ity	-9.43639
ves	-9.43652
ille	-9.43654
ici	-9.43669
మ	-9.43757
સ	-9.4389
▁த	-9.43909
uma	-9.43919
▁pr	-9.4395
কে	-9.44219
kho	-9.44228
jan	-9.44253
ие	-9.44259
mbu	-9.44375
▁স	-9.44427
ց	-9.44443
ře	-9.4454
ود	-9.44695
ქ	-9.4481
цы	-9.44812
thi	-9.44853
ps	-9.44877
mal	-9.4491
▁Ch	-9.44922
وا	-9.44947
ப்ப	-9.45049
ե	-9.45076
af	-9.45099
ণ	-9.45292
ୋ	-9.45307
▁til	-9.45319
P	-9.45458
mis	-9.4549
▁bes	-9.45513
▁tre	-9.45767
eli	-9.45818
▁Р	-9.45849
צ	-9.45933
эн	-9.46037
ün	-9.46051
nosti	-9.46072
ста	-9.46181
▁раз	-9.46221
ná	-9.46267
스	-9.46286
थ	-9.46287
ན	-9.4629
▁Gi	-9.46352
が	-9.46372
▁گ	-9.46432
har	-9.46449
ân	-9.4656
ган	-9.46583
bli	-9.46669
မ	-9.46686
وی	-9.46701
ె	-9.46716
ија	-9.46748
յ	-9.46774
мі	-9.46778
из	-9.4678
▁En	-9.46799
ун	-9.46845
ās	-9.46868
▁Ñ	-9.46899
nej	-9.46902
4	-9.46905
ती	-9.46977
▁Car	-9.4698
ល	-9.47021
oli	-9.47039
도	-9.4711
nder	-9.47391
▁స	-9.47405
▁მ	-9.47503
צי	-9.47578
war	-9.47609
تا	-9.47701
ቅ	-9.47911
ija	-9.47912
ਚ	-9.47936
자	-9.47937
▁qu	-9.48039
ник	-9.48118
ті	-9.48133
ति	-9.4816
በ	-9.48235
▁kor	-9.48258
iden	-9.48285
وم	-9.48337
nost	-9.48353
fan	-9.48377
▁fu	-9.48408
▁var	-9.48515
را	-9.48538
lah	-9.48546
ણ	-9.48599
▁vol	-9.48613
▁0	-9.48634
ρα	-9.48656
க்	-9.48713
ova	-9.48731
ef	-9.48744
ወ	-9.48747
적	-9.4877
ాల	-9.48804
▁Je	-9.48856
эр	-9.48859
▁Du	-9.48924
▁અ	-9.4893
ਸ਼	-9.49042
▁ins	-9.49045
nak	-9.49059
aka	-9.4906
ប	-9.49124
ega	-9.49146
cion	-9.49239
اق	-9.49275
▁На	-9.49339
bre	-9.49416
ín	-9.49454
ວ	-9.49461
్	-9.49568
▁ಬ	-9.49575
pri	-9.49734
AN	-9.49798
ram	-9.49878
ून	-9.49896
aire	-9.49906
يا	-9.50041
േ	-9.50088
դ	-9.50095
ээ	-9.50121
ында	-9.50133
▁Za	-9.50201
ër	-9.5022
par	-9.50236
ଦ	-9.50241
ว	-9.503
ზე	-9.50381
▁Ri	-9.50432
ེ	-9.50458
▁বি	-9.50525
yar	-9.50547
ବ	-9.5059
anga	-9.50679
ਟ	-9.50686
yon	-9.50758
ુ	-9.50759
ša	-9.50786
▁Г	-9.50877
می	-9.50923
ვა	-9.50941
ರು	-9.50949
റ്റ	-9.51017
prav	-9.51086
ଣ	-9.51136
ас	-9.51171
તા	-9.51184
ង	-9.51206
▁хо	-9.51212
▁چ	-9.51252
ների	-9.51259
▁7	-9.5126
▁Hu	-9.51293
ən	-9.51312
ਪ	-9.51313
บ	-9.51329
hen	-9.51341
for	-9.51384
ым	-9.51429
ണ	-9.5157
ត	-9.51572
ရ	-9.51633
бор	-9.51679
▁her	-9.51722
ві	-9.51757
▁str	-9.51789
ої	-9.51862
▁ம	-9.51882
ית	-9.51919
▁15	-9.51977
Р	-9.51985
▁အ	-9.52008
وي	-9.52025
್	-9.52051
▁ag	-9.52079
ії	-9.52108
age	-9.52111
▁kr	-9.52119
ая	-9.52153
ող	-9.52165
ස්	-9.52191
อ	-9.52232
ča	-9.52237
ស	-9.52257
jet	-9.52294
▁har	-9.523
▁შე	-9.52405
ime	-9.52437
▁mat	-9.52625
the	-9.52643
ப	-9.52675
get	-9.52707
O	-9.52758
री	-9.5291
amente	-9.52962
ં	-9.52998
ир	-9.53006
ፍ	-9.53043
ões	-9.53071
ies	-9.53135
ને	-9.53213
ු	-9.53227
én	-9.53359
ೋ	-9.5339
vé	-9.53425
▁19	-9.53451
form	-9.5356
یم	-9.53573
▁uz	-9.53595
に	-9.53617
mə	-9.53683
tic	-9.53685
▁tar	-9.53698
chen	-9.53709
ġ	-9.53725
▁Sch	-9.53769
iko	-9.53817
sia	-9.53844
ळ	-9.53918
정	-9.53921
も	-9.54097
▁Go	-9.54152
די	-9.5419
▁İ	-9.54194
ง	-9.54254
ї	-9.54307
្	-9.54501
ಪ	-9.54517
ул	-9.54523
ence	-9.54523
▁ju	-9.54545
num	-9.54561
ভ	-9.54599
ها	-9.54637
▁q	-9.54656
ых	-9.54667
ée	-9.54685
از	-9.54772
హ	-9.54821
ನ್	-9.54851
ڈ	-9.54914
J	-9.54939
ୟ	-9.54983
▁Er	-9.55016
▁ng	-9.55084
ري	-9.55111
▁we	-9.55179
гүй	-9.55198
▁सं	-9.55511
▁16	-9.55543
kov	-9.55598
ər	-9.55637
গ	-9.55645
ген	-9.55665
ာ	-9.55672
iste	-9.55688
ំ	-9.55694
ເ	-9.55698
▁ර	-9.557
kur	-9.55701
ება	-9.5572
лен	-9.55805
ડ	-9.55829
ví	-9.55846
▁ಕ	-9.55891
од	-9.55893
▁sc	-9.56031
չ	-9.56048
ಟ	-9.56206
ნა	-9.56236
став	-9.5626
net	-9.56285
▁bil	-9.56346
▁ស	-9.56352
▁ප	-9.56395
▁भ	-9.56447
bel	-9.56459
نی	-9.5657
▁sk	-9.56575
ઓ	-9.566
ված	-9.56606
▁kwa	-9.56674
لى	-9.56675
▁10	-9.56702
ੂ	-9.56706
▁9	-9.5673
ство	-9.56733
တ	-9.5677
ते	-9.56795
үү	-9.5684
▁Is	-9.56886
ଗ	-9.56929
▁ك	-9.56929
ச	-9.56996
ང	-9.56999
▁પ	-9.57015
▁π	-9.57097
ख	-9.57138
▁18	-9.57193
ych	-9.57213
▁Va	-9.57317
ев	-9.57335
ord	-9.57395
zy	-9.57399
ạ	-9.57456
dag	-9.57475
ier	-9.57481
ン	-9.57502
lat	-9.57545
ପ	-9.57552
ζ	-9.57595
су	-9.5765
▁sal	-9.57683
mpi	-9.57683
▁де	-9.57745
▁plan	-9.57791
दा	-9.57809
פי	-9.57823
▁ser	-9.57826
εί	-9.57841
uli	-9.57888
тай	-9.57902
br	-9.57936
zon	-9.57952
adi	-9.57998
▁um	-9.58024
pon	-9.58109
sten	-9.58163
ার	-9.58178
▁Hi	-9.58231
ения	-9.58274
▁са	-9.58309
يل	-9.58453
ಸ	-9.58515
ssa	-9.58533
lega	-9.5856
ظ	-9.58566
ეთ	-9.58567
rio	-9.58628
rie	-9.58641
gra	-9.58684
লে	-9.58752
▁tak	-9.58818
ვი	-9.5882
▁ස	-9.58897
ാണ്	-9.58924
ių	-9.58955
kwa	-9.58975
రా	-9.58978
इ	-9.58985
হ	-9.5902
aha	-9.59033
ige	-9.5907
cul	-9.59099
ព	-9.5917
შ	-9.5917
اع	-9.59198
լ	-9.59229
tó	-9.59285
vin	-9.59298
]	-9.59352
vor	-9.59409
▁ха	-9.5952
▁ph	-9.59527
▁Ad	-9.5962
▁kom	-9.59682
ચ	-9.5969
▁min	-9.59698
lic	-9.59699
rod	-9.59854
X	-9.59884
ło	-9.60177
▁У	-9.60234
▁ná	-9.60245
kli	-9.60256
ല്	-9.60257
▁По	-9.60269
ద	-9.60302
▁spo	-9.60306
pt	-9.60355
led	-9.60433
կ	-9.60441
ග	-9.60444
ಂ	-9.60492
▁Ab	-9.6062
стан	-9.60674
ved	-9.60693
па	-9.60708
▁ал	-9.60735
lay	-9.60775
▁17	-9.60811
▁cho	-9.60823
אַ	-9.60861
▁ક	-9.60885
ას	-9.60902
այ	-9.60925
zar	-9.61052
بر	-9.61073
idh	-9.61085
по	-9.61169
রা	-9.61197
ੈ	-9.6122
ૂ	-9.61225
ള	-9.61231
до	-9.61339
ive	-9.61344
▁[	-9.61358
uka	-9.61374
anta	-9.61387
ете	-9.61445
rak	-9.61488
τη	-9.61516
▁Pu	-9.61623
jiet	-9.61632
חי	-9.61638
gel	-9.61677
่	-9.61688
ét	-9.61725
бе	-9.61766
ast	-9.6181
اح	-9.61819
ག	-9.61899
сто	-9.61905
ಣ	-9.6202
all	-9.62067
zzjoni	-9.6208
▁э	-9.62088
mel	-9.62152
щ	-9.62173
ую	-9.62206
์	-9.62231
jem	-9.62239
ore	-9.62239
lon	-9.62289
▁whaka	-9.62289
ມ	-9.62294
ение	-9.62551
ната	-9.62615
▁ol	-9.62657
▁સ	-9.62735
არ	-9.6277
gh	-9.62818
nud	-9.62872
շ	-9.62976
ენ	-9.63033
bili	-9.63071
gang	-9.63124
പ്പ	-9.63138
lam	-9.63174
ებ	-9.63179
щи	-9.63245
ido	-9.63282
ീ	-9.63396
▁ग	-9.63416
ją	-9.6346
ધ	-9.63483
cher	-9.63583
تر	-9.63586
▁au	-9.63649
А	-9.63736
▁inter	-9.63741
ow	-9.63813
det	-9.63862
ени	-9.63896
ice	-9.63919
ń	-9.63971
тел	-9.63973
nin	-9.64024
▁આ	-9.64066
eza	-9.64077
ץ	-9.64115
▁לה	-9.64145
▁उ	-9.64151
ით	-9.64171
ав	-9.64224
ዎች	-9.64277
ਣ	-9.64288
नी	-9.64297
εται	-9.64374
ულ	-9.64636
مان	-9.6465
cal	-9.64719
ann	-9.6472
açã	-9.64807
מו	-9.64832
tive	-9.64844
ley	-9.64952
သ	-9.64964
лек	-9.65038
ပါ	-9.65096
5	-9.65112
శ	-9.65115
▁hal	-9.65226
аў	-9.65332
ంగా	-9.65347
tus	-9.65357
▁man	-9.65468
▁пре	-9.6561
কা	-9.6569
ഗ	-9.65711
▁ji	-9.65789
ның	-9.658
▁Fe	-9.65804
nika	-9.65822
شر	-9.65858
ρι	-9.65859
▁san	-9.65871
Z	-9.66058
ً	-9.66086
ڪ	-9.66086
ህ	-9.66086
を	-9.66086
asyon	-9.66093
▁þ	-9.66111
फ	-9.66298
angan	-9.66342
или	-9.66348
వా	-9.66407
այի	-9.66421
▁raz	-9.66492
առ	-9.665
ย	-9.66531
ਦ	-9.66575
ед	-9.66597
rik	-9.66657
ரி	-9.66661
ich	-9.6671
▁بر	-9.66713
λη	-9.66747
tori	-9.66778
û	-9.66946
το	-9.67072
ጋ	-9.67086
ả	-9.67086
unused	-9.67087
ino	-9.67089
▁Fi	-9.6715
ತ	-9.67209
anya	-9.673
rang	-9.67311
нов	-9.67426
ум	-9.67464
ese	-9.67475
pha	-9.67521
teri	-9.67557
ிய	-9.67677
cija	-9.67682
dien	-9.67689
▁ଆ	-9.67774
ική	-9.67821
▁mas	-9.67988
ande	-9.67992
ani	-9.68046
зі	-9.6808
ท	-9.68085
ँ	-9.68086
ശ	-9.68092
아	-9.68094
མ	-9.68096
gun	-9.68145
lé	-9.68236
tse	-9.68269
ší	-9.68426
ði	-9.68477
ssen	-9.68486
lər	-9.68545
ró	-9.68607
▁sy	-9.68674
▁да	-9.68745
بي	-9.68816
line	-9.68827
else	-9.6883
လ	-9.68856
رو	-9.68894
lor	-9.68979
▁ئا	-9.68998
▁এ	-9.69007
wen	-9.69043
ect	-9.6909
tele	-9.69096
vien	-9.69099
▁नि	-9.69104
대	-9.69116
ība	-9.69121
ଳ	-9.69158
ət	-9.69178
стр	-9.69202
нд	-9.69232
ური	-9.69244
ær	-9.69304
נות	-9.69309
yor	-9.69404
mpa	-9.69438
ட்ட	-9.69525
سي	-9.69525
тан	-9.69617
▁და	-9.69627
డ్	-9.69638
cí	-9.69651
▁vý	-9.69653
פו	-9.69689
ەت	-9.6982
isti	-9.6983
rum	-9.69841
iye	-9.69858
ಲ್	-9.69888
чу	-9.69893
ହ	-9.69901
AL	-9.69924
তি	-9.69948
mme	-9.69956
டி	-9.7006
▁inf	-9.70073
ട്ട	-9.70151
ξ	-9.70261
▁ক	-9.70262
ori	-9.70269
stav	-9.70342
ques	-9.70393
nte	-9.70398
nh	-9.70414
શ	-9.70416
▁by	-9.70423
▁Wi	-9.70433
డ	-9.70457
ering	-9.70458
ौ	-9.70474
ଶ	-9.70576
tek	-9.70625
მი	-9.70659
king	-9.70685
ния	-9.70707
रो	-9.70712
nce	-9.70716
ও	-9.70756
ред	-9.70776
ella	-9.70779
vid	-9.70797
ಡ	-9.70833
ತಿ	-9.70869
анд	-9.70872
ett	-9.70902
એ	-9.70928
▁ይ	-9.70934
חו	-9.71073
ਵ	-9.71136
▁ci	-9.71151
э	-9.71163
န	-9.7118
lari	-9.71183
িত	-9.71189
상	-9.71189
ố	-9.71189
▁మ	-9.71347
▁zo	-9.71372
fen	-9.71434
מע	-9.71457
▁20	-9.7147
zer	-9.71495
তা	-9.71518
jar	-9.71522
ଲ	-9.71551
ité	-9.71617
ос	-9.71627
mento	-9.71646
ති	-9.71704
via	-9.71716
స	-9.71759
wn	-9.71991
ance	-9.71999
ER	-9.72043
ଜ	-9.72081
stro	-9.72161
ዳ	-9.72239
tung	-9.72242
▁bal	-9.72378
лан	-9.72451
▁kur	-9.72528
ţi	-9.72573
ებს	-9.72631
תי	-9.72655
сть	-9.72685
ష	-9.72703
த்து	-9.72767
nych	-9.7285
ando	-9.72932
פר	-9.73034
ከ	-9.73037
ლ	-9.73068
བ	-9.73099
▁sol	-9.73125
▁We	-9.73144
চ	-9.73145
い	-9.73184
dz	-9.73274
서	-9.73287
ุ	-9.73305
lja	-9.73349
iso	-9.73412
ై	-9.73496
idad	-9.73515
tru	-9.73548
ெ	-9.73554
pro	-9.73576
aya	-9.73677
eng	-9.7369
lak	-9.73718
▁Bar	-9.73767
lige	-9.73819
▁Pri	-9.73839
ப்பு	-9.73925
bal	-9.73961
leg	-9.73975
▁tri	-9.73995
ės	-9.74052
ნი	-9.74137
▁ந	-9.74168
ค	-9.7422
لىق	-9.74273
ным	-9.74284
år	-9.74289
▁cl	-9.74314
lung	-9.74371
འ	-9.74379
ལ	-9.7438
▁kun	-9.74398
اي	-9.74465
▁Ya	-9.74585
ป	-9.7463
ட்	-9.747
пе	-9.74703
▁pie	-9.7472
өр	-9.74781
ტ	-9.74819
tak	-9.74853
ados	-9.74859
▁च	-9.74937
են	-9.75029
ನೆ	-9.75058
▁gr	-9.751
▁sek	-9.75101
бу	-9.75115
ರಿ	-9.75175
ლი	-9.75181
յան	-9.75257
pad	-9.75276
фи	-9.75311
ண	-9.75421
▁И	-9.75441
ூ	-9.75453
▁fre	-9.75459
ấ	-9.75467
pas	-9.75536
બ	-9.75558
▁car	-9.75578
▁Es	-9.75674
િક	-9.75694
▁П	-9.75721
भ	-9.75818
eve	-9.75841
▁Ve	-9.75916
سى	-9.76092
שו	-9.76111
▁nag	-9.7613
▁ai	-9.7617
bon	-9.76209
یک	-9.76213
оп	-9.76313
О	-9.7633
▁1	-9.76336
dá	-9.7636
▁sch	-9.76362
일	-9.76411
cije	-9.76469
ீ	-9.76479
▁Par	-9.76489
מת	-9.7654
ዝ	-9.76566
て	-9.76641
دار	-9.76701
▁tek	-9.7674
ото	-9.76758
▁الس	-9.76766
ého	-9.76771
ndu	-9.76785
yd	-9.76887
▁Ε	-9.76952
өө	-9.7696
ಕ್	-9.76981
ес	-9.77009
▁star	-9.77014
ಗೆ	-9.77085
ње	-9.77113
▁qa	-9.77121
phe	-9.77124
▁ह	-9.77136
պ	-9.77189
نگ	-9.77262
ща	-9.77357
▁പ	-9.77405
▁Cu	-9.77474
ità	-9.77533
ள	-9.77629
▁ఆ	-9.77637
វ	-9.7767
ஸ்	-9.77716
▁gra	-9.77758
▁mis	-9.77762
ete	-9.77804
▁पा	-9.77806
ම්	-9.77807
ય	-9.77848
ithe	-9.77896
esti	-9.77921
▁mem	-9.77929
ధ	-9.77941
ые	-9.7795
fin	-9.77987
ణ	-9.78001
мет	-9.78006
▁ஆ	-9.78026
ැ	-9.78028
▁न	-9.78042
bin	-9.7811
▁অ	-9.78131
या	-9.78259
یا	-9.78323
বে	-9.78349
িক	-9.78382
enza	-9.78382
enia	-9.78428
▁ಆ	-9.78436
ами	-9.78505
ུ	-9.78587
աց	-9.7859
دە	-9.78602
ια	-9.78623
ني	-9.78641
ēt	-9.78651
یت	-9.78673
ните	-9.78743
tiva	-9.78769
ጣ	-9.78775
ෝ	-9.788
ൽ	-9.78861
ിൽ	-9.78893
мы	-9.78943
یر	-9.7896
ã	-9.7897
▁Ber	-9.78989
▁mor	-9.79
وب	-9.7903
ế	-9.79075
▁Man	-9.79079
ળ	-9.79083
ან	-9.79104
▁Q	-9.79124
lama	-9.79239
vas	-9.79246
encia	-9.79248
ің	-9.79263
vers	-9.79301
▁Tra	-9.79367
პ	-9.79394
ില്	-9.79541
▁El	-9.79606
cent	-9.79609
▁gy	-9.79625
ின்	-9.79636
δι	-9.79726
ப்	-9.79804
ут	-9.79819
▁бу	-9.79842
nim	-9.79868
ช	-9.79928
ካ	-9.79934
ណ	-9.79937
चा	-9.8
▁aba	-9.80131
מה	-9.80143
િત	-9.80159
dal	-9.80172
لار	-9.80176
▁naj	-9.80263
▁br	-9.8027
οντα	-9.80524
ха	-9.80598
ாக	-9.80604
নে	-9.80616
yin	-9.80641
enda	-9.80655
▁ay	-9.80668
ონ	-9.80685
لىك	-9.80736
ਹ	-9.80752
▁প্র	-9.80765
▁ਕ	-9.80788
dio	-9.80912
▁sen	-9.80972
гэ	-9.80999
▁எ	-9.81003
ith	-9.81034
ូ	-9.81056
ß	-9.81074
ዋ	-9.81087
ड़	-9.81125
δ	-9.8113
▁can	-9.81131
ළ	-9.81143
bet	-9.81148
rë	-9.81184
hod	-9.81268
فر	-9.81329
վել	-9.81355
▁or	-9.81456
tı	-9.81475
▁mü	-9.81476
ava	-9.81493
वर	-9.81604
▁peng	-9.81649
న్ని	-9.8173
▁för	-9.81741
gt	-9.81756
ään	-9.8189
vě	-9.81912
öl	-9.81933
lad	-9.81947
▁המ	-9.81963
ľ	-9.81977
בר	-9.8214
ਿਆ	-9.82141
▁reg	-9.82172
ั	-9.82182
▁vis	-9.82218
ഹ	-9.8225
ậ	-9.8225
▁ਅ	-9.82278
anda	-9.82289
ott	-9.82312
▁ಇ	-9.82409
▁un	-9.82463
jos	-9.82469
mise	-9.82499
νο	-9.8252
iş	-9.8256
יו	-9.8256
вод	-9.82606
▁nä	-9.8262
osta	-9.82665
tä	-9.8269
▁om	-9.82741
dır	-9.82753
නි	-9.82758
бай	-9.82766
ють	-9.82836
pat	-9.82856
כי	-9.82893
fic	-9.82905
ុ	-9.82942
من	-9.82957
খ	-9.82988
udi	-9.83002
үн	-9.83002
▁far	-9.83028
▁կ	-9.83074
ერ	-9.83092
sam	-9.83102
▁Tr	-9.83129
igi	-9.83202
mmer	-9.83269
▁ко	-9.83273
nut	-9.83368
ór	-9.83402
ೈ	-9.83426
드	-9.83426
장	-9.83426
යි	-9.83471
డా	-9.83479
hang	-9.83533
▁श	-9.83546
ର୍	-9.83565
▁ব	-9.83568
ണ്ട	-9.83577
り	-9.83583
lä	-9.83631
▁Fo	-9.83648
▁para	-9.83703
ía	-9.83796
ще	-9.83887
დი	-9.83894
வு	-9.83903
רה	-9.83934
▁под	-9.83936
лер	-9.83976
рт	-9.8403
por	-9.84047
ற	-9.84094
ছে	-9.84125
ká	-9.84185
ま	-9.84238
rd	-9.84286
ап	-9.84322
ови	-9.84326
прав	-9.84382
തി	-9.84392
▁እ	-9.84475
ሚ	-9.84587
ған	-9.84612
나	-9.84616
으로	-9.8462
ара	-9.84646
long	-9.8466
ран	-9.84718
ieren	-9.84749
না	-9.84797
gin	-9.84857
ük	-9.84976
सी	-9.84985
cri	-9.85013
▁이	-9.85018
ੰ	-9.85091
▁გა	-9.85135
▁St	-9.85154
itu	-9.85169
하	-9.85253
ాలు	-9.85271
ede	-9.85287
ול	-9.85288
▁gal	-9.85478
▁Un	-9.85509
can	-9.85516
nji	-9.8552
▁zi	-9.85546
▁ọ	-9.85562
ನಿ	-9.85595
ամ	-9.85609
ही	-9.85613
වා	-9.85628
ուն	-9.85654
խ	-9.8566
эх	-9.85671
sjon	-9.85722
▁су	-9.8573
ቱ	-9.85821
요	-9.85821
lim	-9.85908
mwe	-9.85923
▁බ	-9.85933
ort	-9.8594
cin	-9.85982
way	-9.85989
put	-9.86006
ып	-9.86007
▁മ	-9.8601
lit	-9.86164
ngan	-9.86212
сі	-9.86234
יה	-9.86242
رد	-9.86351
▁ر	-9.8637
dı	-9.86396
lag	-9.86434
ple	-9.86475
▁съ	-9.86483
ො	-9.86518
▁nap	-9.86603
siya	-9.86647
▁క	-9.86655
ସ	-9.86668
ধ	-9.86668
dom	-9.86715
lə	-9.86719
េ	-9.86723
ина	-9.86728
ām	-9.86733
წ	-9.86741
ده	-9.86744
car	-9.86751
न्	-9.86781
aren	-9.86798
raz	-9.86815
рі	-9.86821
לו	-9.86854
pra	-9.86855
ус	-9.86931
tim	-9.8694
zan	-9.86946
оч	-9.86993
ето	-9.87031
▁ക	-9.87035
ີ	-9.87037
ight	-9.87097
▁ఇ	-9.87101
λα	-9.87201
jte	-9.87202
லை	-9.87206
▁fer	-9.87208
uh	-9.87357
্যা	-9.8738
ଟ	-9.87386
ско	-9.87447
работ	-9.87459
sis	-9.87488
τι	-9.87489
რა	-9.87511
ಶ	-9.87541
ල්	-9.87562
ette	-9.8766
ugh	-9.87716
каз	-9.87718
ати	-9.87725
ദ	-9.8779
pin	-9.87838
▁נ	-9.87858
ുടെ	-9.87863
で	-9.87926
thu	-9.87949
ċ	-9.88019
nto	-9.88023
νη	-9.88024
mek	-9.88038
ավ	-9.88046
▁Đ	-9.88075
уч	-9.88117
bit	-9.88153
્ય	-9.88238
یل	-9.88275
ntes	-9.88292
▁për	-9.8832
ර්	-9.88374
nzi	-9.88426
ურ	-9.88449
ден	-9.88475
▁फ	-9.88507
ност	-9.88603
▁dom	-9.88628
ଇ	-9.88633
enie	-9.88666
▁over	-9.88715
টি	-9.8872
ké	-9.88756
8	-9.88875
▁tur	-9.8888
્ર	-9.8898
mini	-9.89017
kal	-9.89061
▁cre	-9.89093
ення	-9.89214
▁Э	-9.89216
പ	-9.89227
pis	-9.89275
ком	-9.89312
dzie	-9.89349
kun	-9.89358
▁од	-9.89362
▁لل	-9.89366
▁Kon	-9.89394
sche	-9.89394
▁parti	-9.89402
తి	-9.89407
ۈ	-9.89427
қа	-9.89476
զ	-9.89497
ົ	-9.89508
니	-9.89522
ፈ	-9.89525
çe	-9.89571
nc	-9.89605
өн	-9.89652
ക്	-9.89669
کی	-9.89711
ಸಿ	-9.89746
লা	-9.89788
aran	-9.89807
љ	-9.89869
▁wo	-9.89878
▁Ма	-9.89905
▁mod	-9.89912
ங்கள்	-9.8993
ტი	-9.89943
ບ	-9.8997
ыр	-9.89974
ॉ	-9.89981
▁ор	-9.89991
ова	-9.90041
से	-9.90066
god	-9.90108
bru	-9.90124
гы	-9.90131
▁வி	-9.90273
▁12	-9.90303
▁пра	-9.90321
▁tə	-9.90331
gue	-9.90372
ကို	-9.90384
zio	-9.90417
▁వి	-9.90506
▁бер	-9.90568
▁Am	-9.90672
แ	-9.90674
ರೆ	-9.9069
▁kh	-9.90702
ら	-9.90776
ىسى	-9.90783
భ	-9.9079
дер	-9.90792
िय	-9.90809
jú	-9.90819
▁sin	-9.90839
ян	-9.9084
▁13	-9.909
pel	-9.90974
ydd	-9.91005
رب	-9.91051
ция	-9.91218
▁পা	-9.91265
пис	-9.91335
▁bh	-9.91342
ବା	-9.91374
dik	-9.91375
hana	-9.91412
ök	-9.91532
нь	-9.91543
டு	-9.91568
ří	-9.9157
ahan	-9.91573
ี	-9.91583
▁ind	-9.91605
று	-9.91616
کر	-9.91618
ಿನ	-9.91638
К	-9.9167
▁pas	-9.91687
▁ein	-9.91744
▁por	-9.91793
▁الع	-9.91813
πο	-9.91827
rom	-9.91827
ex	-9.91908
▁prov	-9.91982
່	-9.9205
சி	-9.92052
게	-9.92068
▁নি	-9.92072
tica	-9.92075
ller	-9.92112
ити	-9.92137
્યા	-9.92151
dur	-9.92226
ಹ	-9.92227
ċi	-9.92263
డు	-9.92277
▁Ter	-9.92293
ние	-9.92303
uru	-9.92307
ман	-9.92323
යේ	-9.92423
ಲ್ಲಿ	-9.92454
că	-9.9253
ગ	-9.92564
ಿಗೆ	-9.9257
ଭ	-9.92571
た	-9.92599
▁ent	-9.92605
▁Or	-9.92624
bro	-9.92653
ист	-9.92655
సి	-9.92672
лган	-9.9271
▁tro	-9.92799
້	-9.92803
зе	-9.92826
▁ପ	-9.92869
રી	-9.92919
ress	-9.92931
nne	-9.93055
ძ	-9.93075
run	-9.93082
▁kri	-9.93085
ther	-9.93132
▁सा	-9.93164
nic	-9.93184
ିତ	-9.93202
wal	-9.93288
ськ	-9.93294
▁zá	-9.933
ава	-9.93302
▁res	-9.93303
даг	-9.93357
ắ	-9.93372
च्या	-9.93402
եւ	-9.93432
ture	-9.93552
stre	-9.93575
оў	-9.93594
ная	-9.93605
କୁ	-9.93643
elo	-9.93647
ائی	-9.93652
ging	-9.93659
▁Cor	-9.93684
άν	-9.93724
ಕ್ಕ	-9.93742
▁bir	-9.93745
тра	-9.93753
эд	-9.93825
לה	-9.93835
כו	-9.93941
yang	-9.93945
జ	-9.93952
nú	-9.93993
kke	-9.94019
բ	-9.94029
iro	-9.94034
▁ye	-9.94052
▁pat	-9.94143
ಳ	-9.94152
ալ	-9.94179
lem	-9.94235
ින්	-9.9426
▁Her	-9.94288
ڑ	-9.94327
ատ	-9.94385
▁cel	-9.94412
▁ಹ	-9.94489
ique	-9.94529
gal	-9.94532
▁est	-9.94564
ծ	-9.94568
रे	-9.94593
лық	-9.94606
▁दि	-9.94619
вы	-9.94622
ങ്ങള	-9.9472
स्	-9.94746
ಟ್	-9.94758
gia	-9.9481
уу	-9.9483
دى	-9.94863
ike	-9.94886
▁Ка	-9.94892
තු	-9.9494
лог	-9.94943
▁Mat	-9.94971
ां	-9.94979
ਡ	-9.95003
ій	-9.9514
▁Е	-9.95222
▁ста	-9.95233
dat	-9.9529
▁ай	-9.95344
cat	-9.95454
قى	-9.95497
گی	-9.95514
▁kre	-9.95549
▁Sta	-9.95561
unda	-9.95688
ცი	-9.95762
еш	-9.9577
ತ್ತ	-9.95808
olo	-9.95822
oga	-9.95828
azion	-9.95848
дә	-9.95913
▁Com	-9.95936
קי	-9.95957
く	-9.95989
اج	-9.95998
انی	-9.96
ନ୍	-9.96006
ေ	-9.96007
พ	-9.96012
에서	-9.96043
ობ	-9.96044
ña	-9.96053
дел	-9.96085
ary	-9.9611
स्त	-9.96167
ÑuÑ	-9.96184
ctor	-9.96191
▁ប	-9.96203
ाय	-9.96207
gon	-9.96223
മാ	-9.96224
▁dr	-9.96228
▁acc	-9.96234
▁ක	-9.96263
▁ପ୍ର	-9.96278
טי	-9.96323
▁cer	-9.9636
ؤ	-9.96363
లి	-9.96395
ీ	-9.96399
ລ	-9.96466
▁rec	-9.96565
like	-9.96683
▁қа	-9.96694
пер	-9.96734
خل	-9.96745
ży	-9.96824
▁nem	-9.96898
ddi	-9.96901
▁vers	-9.96945
inta	-9.96987
mus	-9.97071
कार	-9.9708
ungen	-9.97094
▁ഇ	-9.97146
āk	-9.97172
▁બ	-9.97175
اه	-9.972
▁kap	-9.97251
ým	-9.97344
pit	-9.97357
부	-9.97373
해	-9.97373
တယ်	-9.97378
part	-9.97406
lum	-9.9743
unt	-9.97431
რე	-9.97457
ик	-9.97487
ទ	-9.97533
▁الن	-9.97557
ayo	-9.97572
nner	-9.976
zem	-9.97642
▁ప్ర	-9.97668
اک	-9.97709
▁tan	-9.97748
▁kup	-9.9781
TA	-9.97813
ža	-9.97934
אָ	-9.97955
czy	-9.97962
wr	-9.98034
lek	-9.98088
கு	-9.98088
ंड	-9.98159
ук	-9.98172
▁mer	-9.98285
▁of	-9.98305
vy	-9.98343
áil	-9.98365
ick	-9.98408
▁ре	-9.98433
ства	-9.98474
▁пред	-9.98494
ច	-9.9853
ვე	-9.98541
kuwa	-9.98562
गा	-9.98658
tom	-9.98676
тр	-9.98677
ړ	-9.98731
▁produ	-9.98733
▁кор	-9.98735
면	-9.98737
ű	-9.98742
ộ	-9.98742
▁се	-9.98775
λε	-9.98785
মা	-9.98798
fica	-9.988
tzeko	-9.9883
μέν	-9.98904
λο	-9.98925
уул	-9.98931
▁ആ	-9.99051
inte	-9.99105
▁Kom	-9.99106
ск	-9.99135
фа	-9.99235
▁gro	-9.9933
▁ಸ	-9.99342
▁من	-9.99494
вар	-9.99511
▁disp	-9.99511
्र	-9.99515
тә	-9.99595
amento	-9.99615
ania	-9.99629
▁Sh	-9.99664
bang	-9.99759
▁person	-9.99822
ult	-9.999
ప్	-9.99907
▁cor	-9.9994
سل	-9.99988
▁fr	-10.0003
ím	-10.0004
lje	-10.0004
sal	-10.0004
▁organiz	-10.001
ហ	-10.0013
ス	-10.0013
င်	-10.0013
습니	-10.0013
மை	-10.0018
▁pres	-10.0019
rah	-10.0021
▁bol	-10.0025
lju	-10.0027
வா	-10.0028
umu	-10.0029
ив	-10.003
្ល	-10.0031
▁opera	-10.0032
▁pass	-10.0034
μο	-10.0036
եց	-10.0042
მე	-10.0052
▁ok	-10.0053
irt	-10.007
να	-10.0072
▁sub	-10.0078
אי	-10.0092
әр	-10.0094
▁Gra	-10.0094
ҷ	-10.0095
▁vä	-10.0096
בו	-10.01
эг	-10.0102
ыл	-10.0102
हि	-10.0111
hol	-10.0114
ient	-10.0122
zz	-10.0124
llä	-10.0127
▁nh	-10.0127
ຍ	-10.0128
▁Nor	-10.0129
উ	-10.013
ზ	-10.0133
▁dha	-10.0134
σι	-10.0135
اش	-10.0139
▁إ	-10.0144
▁ges	-10.0144
ោ	-10.0154
ջ	-10.0154
ದಲ್ಲಿ	-10.0165
யில்	-10.017
лык	-10.0171
ቶች	-10.0171
لم	-10.0179
क्ष	-10.0191
ոն	-10.0194
iva	-10.0201
IN	-10.0201
رس	-10.0203
▁ଅ	-10.0208
డి	-10.0208
یس	-10.0209
بار	-10.0215
ంచ	-10.0218
nci	-10.0222
ரு	-10.0229
ности	-10.0229
▁در	-10.0232
рын	-10.0234
taan	-10.0235
▁nov	-10.0239
phi	-10.0241
сон	-10.0241
hir	-10.0245
▁Gr	-10.0251
▁მო	-10.0256
غا	-10.0256
lala	-10.0257
ому	-10.0258
7	-10.0261
kọ	-10.0266
▁ste	-10.0268
▁Op	-10.0268
্র	-10.0268
cre	-10.027
ında	-10.0272
ije	-10.0276
த்தி	-10.0278
AR	-10.0279
tè	-10.0287
ира	-10.029
zza	-10.0292
സ	-10.0293
▁Ser	-10.0296
ಧ	-10.0296
ਫ	-10.0297
ቃ	-10.0297
utu	-10.0297
▁form	-10.0304
עי	-10.0307
tivo	-10.0309
dem	-10.0311
já	-10.0311
▁gre	-10.0317
▁ос	-10.0328
ਜ਼	-10.0329
чно	-10.0331
ço	-10.0332
ുള്ള	-10.0337
ಚ	-10.0337
uti	-10.0339
ρε	-10.0348
ყ	-10.0349
▁Π	-10.035
ეს	-10.035
▁бар	-10.0353
सा	-10.0355
6	-10.0357
ତା	-10.0371
થ	-10.0372
هر	-10.0373
ою	-10.0373
tay	-10.0373
▁medi	-10.0375
ଚ	-10.0378
rav	-10.0378
šo	-10.038
ൂ	-10.0383
▁با	-10.0387
რი	-10.0388
▁lä	-10.0392
ament	-10.0394
lav	-10.0396
ford	-10.0406
ച	-10.0412
▁Х	-10.0415
▁එ	-10.0416
ਂ	-10.0427
ਗ	-10.0429
▁bro	-10.0429
ור	-10.0431
zia	-10.0432
ん	-10.0436
▁aan	-10.0439
ढ	-10.044
▁blo	-10.044
စ	-10.0441
ൈ	-10.0442
ූ	-10.0442
ข	-10.0442
▁Bra	-10.0442
▁14	-10.0444
▁ਪ	-10.0446
يم	-10.0447
ral	-10.0454
మైన	-10.0459
▁qo	-10.0461
າ	-10.0464
MA	-10.0471
çi	-10.0474
▁kö	-10.0478
hara	-10.0479
▁जा	-10.0481
▁អ	-10.0483
xo	-10.0484
▁그	-10.0485
▁ਬ	-10.049
аны	-10.0494
ڭ	-10.0497
στ	-10.0499
סי	-10.05
▁وال	-10.05
▁the	-10.0501
stri	-10.0505
mine	-10.0511
cos	-10.0512
▁cr	-10.0514
▁Kar	-10.0515
ਰੀ	-10.0525
▁informa	-10.0528
tif	-10.0529
ож	-10.0531
▁ସ	-10.0532
ún	-10.0541
▁Cha	-10.0543
llen	-10.0543
vanje	-10.055
שה	-10.0557
▁sv	-10.0558
ਜ	-10.0559
ұ	-10.0563
וו	-10.0566
வர	-10.0573
ىنى	-10.0579
stä	-10.0587
ư	-10.0588
ઇ	-10.059
ência	-10.0598
▁الب	-10.0599
ает	-10.0599
ங்க	-10.06
ża	-10.06
▁For	-10.0601
▁uni	-10.0603
گر	-10.0603
ַ	-10.0605
ంద	-10.0605
▁مو	-10.0607
নি	-10.0608
ric	-10.061
toj	-10.0628
ht	-10.0628
қы	-10.0628
isen	-10.063
قر	-10.0645
▁prze	-10.0646
50	-10.0649
ται	-10.065
▁مر	-10.0651
ır	-10.0651
जन	-10.0658
nica	-10.0659
▁up	-10.0661
న్న	-10.0669
amh	-10.0671
өл	-10.0673
ÑpÑ	-10.0677
él	-10.0677
ಲು	-10.0679
យ	-10.0679
▁kam	-10.0681
ικό	-10.0688
▁sou	-10.0693
▁prop	-10.0693
знач	-10.0696
▁pot	-10.0704
wana	-10.0709
ség	-10.071
ļ	-10.0711
day	-10.0713
gur	-10.0717
دي	-10.0726
ള്	-10.0726
▁esp	-10.0726
ono	-10.073
ະ	-10.0735
ル	-10.0737
จ	-10.0738
יל	-10.0748
dro	-10.0755
تم	-10.0756
▁zna	-10.0759
قل	-10.0767
▁indi	-10.0768
τή	-10.0769
టి	-10.077
stic	-10.0773
heid	-10.0778
നി	-10.0785
▁ali	-10.0791
جر	-10.0793
▁fh	-10.0795
ог	-10.0797
ləri	-10.0797
mä	-10.0799
ÑÄÑ	-10.0799
하는	-10.0803
ły	-10.0809
pos	-10.0818
사	-10.082
anna	-10.0826
▁Vo	-10.0838
lijk	-10.085
▁З	-10.0855
ệ	-10.0856
ња	-10.0868
pho	-10.0878
▁ਆ	-10.0879
ρο	-10.088
уш	-10.0882
ување	-10.0886
मान	-10.0888
ষ	-10.0889
き	-10.0889
제	-10.089
お	-10.089
°	-10.089
ŝ	-10.089
▁પ્ર	-10.0895
תו	-10.0898
្ត	-10.0899
▁Ա	-10.0899
▁ಪ್ರ	-10.0909
osti	-10.0913
▁tä	-10.0914
▁hel	-10.0914
▁зна	-10.0915
▁Pra	-10.0917
▁బ	-10.0918
▁تو	-10.0919
▁apar	-10.0919
දු	-10.0924
gna	-10.0924
දි	-10.0925
род	-10.0925
тэй	-10.0928
್ಯ	-10.0942
ләр	-10.0949
ులు	-10.0955
роб	-10.0957
šana	-10.0958
▁הא	-10.0959
মি	-10.0965
IS	-10.0968
mir	-10.097
dza	-10.097
هم	-10.0977
▁che	-10.098
▁చ	-10.0983
▁Har	-10.0989
ää	-10.0991
▁За	-10.0994
க்கு	-10.0998
ಡಿ	-10.0999
▁ማ	-10.1
କ୍	-10.1002
▁kas	-10.1009
බ	-10.1012
Н	-10.1013
▁الا	-10.1014
▁বা	-10.1016
fat	-10.1019
▁സ	-10.1023
qo	-10.1029
න්න	-10.103
▁ବି	-10.1037
ать	-10.1038
▁Ob	-10.104
ыя	-10.1041
ించ	-10.1043
ӯ	-10.1043
ক্ষ	-10.1043
ሩ	-10.1043
소	-10.1043
오	-10.1043
gol	-10.1044
ρί	-10.1046
▁гр	-10.105
bung	-10.1051
win	-10.106
▁වි	-10.1061
▁az	-10.1062
दी	-10.1063
റെ	-10.1064
▁від	-10.1068
▁Ex	-10.107
ल्या	-10.1072
οι	-10.1072
ид	-10.1076
خت	-10.1076
öz	-10.1077
yê	-10.1081
vil	-10.1083
dje	-10.1086
▁Tur	-10.1086
மான	-10.1087
▁କ	-10.1091
▁sur	-10.1096
ası	-10.1097
რო	-10.1101
rè	-10.1104
וב	-10.1109
jí	-10.1111
jal	-10.1111
▁voor	-10.1113
রে	-10.1115
нда	-10.1116
▁gw	-10.112
سم	-10.1121
രി	-10.1122
نه	-10.1124
▁Ng	-10.1124
యా	-10.1126
tab	-10.1127
ър	-10.1131
▁Val	-10.1134
ღ	-10.1134
▁пере	-10.114
stand	-10.1144
don	-10.1144
mh	-10.1146
وت	-10.115
сэн	-10.1153
हा	-10.1158
▁edi	-10.1159
יט	-10.116
▁সা	-10.1167
hra	-10.1169
RE	-10.1174
▁mus	-10.1176
வி	-10.1176
હ	-10.1177
čno	-10.1178
yň	-10.118
▁ist	-10.1183
▁প	-10.1184
ાય	-10.1195
נע	-10.1197
ห	-10.1197
ධ	-10.12
ធ	-10.12
▁سو	-10.1202
П	-10.1205
зы	-10.1207
▁Ал	-10.1209
شت	-10.121
най	-10.1211
▁Հ	-10.1217
▁uit	-10.1224
▁Nu	-10.1227
▁bel	-10.123
gara	-10.1232
▁opp	-10.1233
hold	-10.1236
ான	-10.1241
మి	-10.1243
▁গ	-10.1244
cione	-10.1248
▁Min	-10.1251
kim	-10.1254
ստ	-10.1257
ño	-10.1257
تح	-10.1258
ફ	-10.1265
olu	-10.1267
ਆਂ	-10.1269
usi	-10.1272
eiro	-10.128
ਬ	-10.129
ਦਾ	-10.129
▁kwe	-10.1291
▁app	-10.1296
pur	-10.1302
पा	-10.1302
áci	-10.1305
נט	-10.1307
sión	-10.1307
▁mé	-10.1308
▁است	-10.1309
▁ਹ	-10.131
▁At	-10.131
łu	-10.1311
یز	-10.1311
▁גע	-10.1312
tika	-10.132
igen	-10.1329
shë	-10.1329
ını	-10.1334
lwa	-10.1337
ít	-10.134
घ	-10.1342
▁ប្រ	-10.1343
ଥ	-10.1348
ّ	-10.1349
Д	-10.135
tera	-10.1353
▁الح	-10.1354
kä	-10.1356
ທ	-10.1358
tun	-10.1358
ຕ	-10.1358
็	-10.1358
ژ	-10.1358
සි	-10.1363
▁ආ	-10.1366
ÑÑ	-10.1366
मि	-10.1367
apa	-10.1369
pie	-10.137
के	-10.1372
يف	-10.1375
йте	-10.1379
ät	-10.1381
æt	-10.1383
▁Ag	-10.1383
esta	-10.1386
▁vir	-10.1387
эт	-10.1391
ości	-10.1392
äh	-10.1393
▁ад	-10.1399
দের	-10.1399
וח	-10.14
ving	-10.1406
▁ز	-10.1415
sak	-10.1416
хо	-10.1419
▁ئى	-10.1423
illa	-10.1424
ög	-10.1427
▁rep	-10.1429
▁bor	-10.1433
یو	-10.1434
ණ	-10.1435
▁pred	-10.1437
hur	-10.1438
עו	-10.1442
▁ص	-10.1444
LE	-10.1447
ഷ	-10.1448
jel	-10.1448
ικ	-10.1449
θε	-10.1453
▁बा	-10.1454
tul	-10.1455
isha	-10.1455
غان	-10.1456
ÑyÑ	-10.146
llo	-10.1463
rä	-10.147
із	-10.1472
pet	-10.1472
▁الف	-10.1473
tique	-10.1481
δο	-10.1481
▁Μ	-10.1481
rez	-10.1487
κά	-10.1489
▁sil	-10.149
asan	-10.1498
uv	-10.1499
ەر	-10.15
शा	-10.1504
ях	-10.1506
كى	-10.1508
rif	-10.151
ొ	-10.1515
ਵਾ	-10.1518
들	-10.152
יר	-10.1521
acht	-10.1522
▁ח	-10.1522
ది	-10.1525
▁ವಿ	-10.1528
iad	-10.1528
ful	-10.153
LA	-10.1533
ligt	-10.1535
▁מו	-10.1535
ES	-10.1536
▁Н	-10.1544
▁program	-10.1548
ਖ	-10.1556
छ	-10.156
चे	-10.1572
дзе	-10.1574
àn	-10.1574
त्र	-10.1575
fung	-10.1578
با	-10.1581
ούν	-10.1582
ု	-10.1584
▁Ak	-10.1592
▁bra	-10.1595
ार	-10.1595
üm	-10.1596
स्ट	-10.1599
ljen	-10.1601
йн	-10.1602
tag	-10.1604
దు	-10.1609
▁vend	-10.1614
уз	-10.1621
ыг	-10.1621
jum	-10.1621
▁ша	-10.1625
▁ве	-10.1626
ାଇ	-10.163
▁জ	-10.1631
тын	-10.1635
SA	-10.1639
▁eng	-10.1642
лік	-10.1646
اط	-10.1647
▁nav	-10.1648
्ल	-10.1648
खा	-10.1649
▁વ	-10.1655
وان	-10.1656
vez	-10.1657
▁보	-10.1666
▁Σ	-10.1667
аг	-10.1667
పు	-10.1674
▁dev	-10.1674
▁ע	-10.1679
라	-10.1681
som	-10.1682
ယ်	-10.1683
트	-10.1683
ಲಿ	-10.1683
ঁ	-10.1684
rov	-10.1685
मी	-10.1687
И	-10.1688
▁ඉ	-10.1692
ktor	-10.1694
ած	-10.1697
ილი	-10.1697
▁Ph	-10.1697
▁कर	-10.1698
ਤਾ	-10.1699
ിച്ച	-10.17
▁zu	-10.1701
وز	-10.1709
Q	-10.1712
က်	-10.1714
्न	-10.1715
ाई	-10.1717
ಿಸಿ	-10.1719
ador	-10.1721
తో	-10.1722
કા	-10.1722
▁Ste	-10.1726
lash	-10.1727
ନି	-10.1732
10	-10.1737
jā	-10.1737
ନ୍ତି	-10.174
ally	-10.174
▁ග	-10.1743
tö	-10.1744
రీ	-10.1744
ਰਾ	-10.1746
គ	-10.1758
லி	-10.1758
▁사	-10.1759
▁chu	-10.1761
mana	-10.1767
kulu	-10.1768
tina	-10.1771
раз	-10.1777
ыш	-10.1777
liv	-10.1781
្រ	-10.1781
ლებ	-10.1782
jon	-10.1785
ñ	-10.1785
ose	-10.1786
▁komp	-10.1788
чки	-10.18
ई	-10.1803
زا	-10.1803
dores	-10.1803
үй	-10.1807
▁sem	-10.1813
▁Fu	-10.1815
です	-10.1815
ྲ	-10.182
ous	-10.1834
ness	-10.1836
ाइ	-10.1838
essa	-10.1843
▁אי	-10.1845
う	-10.185
け	-10.185
ժ	-10.185
성	-10.185
သည်	-10.1851
▁prim	-10.1851
تە	-10.1852
ವಾಗಿ	-10.1852
endo	-10.1852
▁ubu	-10.1853
▁اس	-10.1854
ազ	-10.1854
iert	-10.186
▁Ac	-10.1862
ました	-10.187
së	-10.1874
іп	-10.189
හි	-10.1894
အ	-10.1897
▁अस	-10.1899
کو	-10.1902
Т	-10.1906
ງ	-10.1906
üz	-10.1909
ĝ	-10.1913
ост	-10.1919
taj	-10.192
कर	-10.192
▁વિ	-10.1921
▁pol	-10.1927
جن	-10.1931
▁cap	-10.1931
مي	-10.1931
▁pré	-10.1934
dob	-10.1936
σει	-10.1937
צו	-10.1939
▁11	-10.1942
ੱ	-10.1943
▁pam	-10.1946
▁roz	-10.1948
ිය	-10.1953
ции	-10.1953
bay	-10.1956
▁prote	-10.1958
▁рас	-10.1958
▁Sal	-10.196
ux	-10.1964
▁bud	-10.1965
▁προ	-10.197
जी	-10.1971
alla	-10.1972
ዊ	-10.1973
ení	-10.1974
▁бел	-10.1976
▁Ф	-10.1978
bla	-10.1978
ох	-10.1983
جي	-10.1988
▁الق	-10.1992
త్	-10.1994
ელი	-10.1999
ایی	-10.2
ката	-10.2001
पर	-10.2001
াই	-10.2002
డం	-10.2004
▁הת	-10.2005
னை	-10.2007
▁nam	-10.2011
ுக்கு	-10.2013
ើ	-10.2017
ಷ	-10.2019
ຄ	-10.202
▁い	-10.2022
след	-10.2023
יב	-10.2025
▁pang	-10.2025
she	-10.2028
▁film	-10.203
▁મ	-10.2036
зна	-10.2037
ဆ	-10.2046
మా	-10.2046
▁nge	-10.2048
▁med	-10.205
ନା	-10.2051
ಬ	-10.2053
থ	-10.2053
кер	-10.2055
ця	-10.2057
ंत	-10.2064
▁مت	-10.2067
▁مس	-10.2067
▁ਮ	-10.2067
نس	-10.2071
की	-10.2074
şa	-10.2077
▁に	-10.2079
ння	-10.2082
يت	-10.209
aeth	-10.2093
▁bat	-10.21
ema	-10.2102
til	-10.2103
itas	-10.2109
ribu	-10.2112
▁gar	-10.2118
tza	-10.2124
кан	-10.2124
மாக	-10.2125
▁ਦ	-10.2131
ால்	-10.2131
्ट	-10.2134
fik	-10.2135
bere	-10.2136
▁મા	-10.2137
нэ	-10.2137
nog	-10.2142
λέ	-10.2142
▁cur	-10.2143
وق	-10.2144
وع	-10.2144
ló	-10.2148
▁bak	-10.2149
ması	-10.2152
лет	-10.2153
▁হ	-10.2155
مە	-10.2163
చ	-10.2167
▁Κ	-10.217
▁kat	-10.2177
ρά	-10.218
دان	-10.218
ిన	-10.2181
▁ಪ	-10.2185
ლის	-10.2187
लाई	-10.219
τική	-10.219
ශ	-10.2191
ï	-10.2192
ɛ	-10.2192
ओ	-10.2192
비	-10.2192
him	-10.2194
тү	-10.2194
וי	-10.2195
في	-10.2197
рат	-10.2198
▁trans	-10.22
▁Uni	-10.2204
به	-10.2204
rar	-10.2205
тен	-10.2207
چى	-10.2209
ində	-10.221
▁sup	-10.2211
ოს	-10.2212
பு	-10.2212
उ	-10.2213
وار	-10.2218
ident	-10.222
ுள்ள	-10.2222
ლო	-10.2223
ରି	-10.2224
▁શ	-10.2224
şı	-10.2227
▁mah	-10.2228
pil	-10.2233
▁Pen	-10.2234
нан	-10.2236
κε	-10.2237
ます	-10.2239
▁ئە	-10.224
▁dra	-10.224
ať	-10.2242
▁سر	-10.2243
টা	-10.2248
мин	-10.2248
eka	-10.2248
سب	-10.2249
IT	-10.2251
נת	-10.2259
وف	-10.2261
යක්	-10.2262
ана	-10.2265
נד	-10.2272
▁Men	-10.2273
ాయి	-10.2273
லா	-10.2274
▁എ	-10.2278
ров	-10.2278
ेट	-10.2282
zie	-10.2287
டை	-10.2289
ίζ	-10.2293
kuru	-10.2294
▁ק	-10.2303
oro	-10.2306
▁Pol	-10.2307
▁esi	-10.2309
fel	-10.2314
▁ನ	-10.2321
эм	-10.2322
20	-10.2325
аж	-10.2327
▁leg	-10.2331
кс	-10.2339
▁Ч	-10.234
ء	-10.2347
אר	-10.2365
▁ବ	-10.2365
ଖ	-10.2365
ሪ	-10.2366
ikan	-10.2366
వే	-10.2367
ู	-10.2367
ಭ	-10.2367
န်	-10.2368
▁سا	-10.2368
නය	-10.2369
ða	-10.237
த்தை	-10.2372
miento	-10.2376
▁Ze	-10.2384
▁ху	-10.2385
бер	-10.2385
ավոր	-10.2385
selt	-10.2386
луч	-10.2386
▁eg	-10.2387
lip	-10.2388
▁poli	-10.2392
дин	-10.2394
гд	-10.2397
сын	-10.2399
▁vari	-10.2399
▁Ш	-10.2403
бра	-10.2407
▁cy	-10.2408
adda	-10.2412
אה	-10.2413
νε	-10.2414
▁conse	-10.2418
ელ	-10.2419
های	-10.2423
anti	-10.2424
סו	-10.244
קר	-10.2441
ং	-10.2451
ண்ட	-10.2454
▁pl	-10.2457
▁Col	-10.2459
යා	-10.246
▁கா	-10.2464
eur	-10.2468
ଧ	-10.247
ју	-10.2471
▁dy	-10.2474
יק	-10.2474
issa	-10.2475
▁van	-10.2485
mber	-10.2485
▁all	-10.2487
னர்	-10.2488
▁Sam	-10.2488
▁poz	-10.2488
лт	-10.249
στε	-10.2491
▁fin	-10.2495
schen	-10.2495
▁Des	-10.2499
▁ਜ	-10.2501
ിച്ചു	-10.2502
мер	-10.2502
ishi	-10.2504
ensi	-10.2505
ила	-10.2509
ញ	-10.2513
▁بال	-10.2514
▁hor	-10.2521
▁bri	-10.2522
ची	-10.2527
skap	-10.253
cker	-10.2531
bles	-10.2534
▁kwi	-10.2538
▁Ins	-10.2544
cze	-10.2544
Ι	-10.2545
lü	-10.2546
원	-10.2546
신	-10.2546
위	-10.2546
ที่	-10.2547
କ୍ଷ	-10.2547
ায়	-10.2551
ġi	-10.2552
sser	-10.2553
ড	-10.2553
unk	-10.2553
ะ	-10.2559
lov	-10.2564
ుల	-10.2566
мал	-10.2569
वि	-10.2569
▁ג	-10.2569
▁الش	-10.257
fun	-10.2572
▁ای	-10.2574
AS	-10.2574
itet	-10.2575
िया	-10.2575
▁ന	-10.2576
ձ	-10.2579
čin	-10.2583
ान	-10.2584
بن	-10.2585
▁lé	-10.2588
▁فر	-10.2598
▁má	-10.2604
град	-10.2606
രു	-10.2614
▁тө	-10.2617
▁ತ	-10.2621
nym	-10.2626
્સ	-10.2628
ற்ற	-10.2628
Α	-10.2634
ران	-10.2634
pes	-10.264
lica	-10.2641
inde	-10.2643
▁ख	-10.2647
▁Af	-10.2649
ռ	-10.2651
9	-10.2652
って	-10.2657
కి	-10.2659
ș	-10.2661
Ε	-10.2664
▁Res	-10.2668
ume	-10.2672
com	-10.2673
ٹی	-10.2685
langan	-10.269
▁Ж	-10.269
mark	-10.2696
୍ୟ	-10.2698
ګ	-10.2702
▁top	-10.2703
כל	-10.2708
ningen	-10.271
ජ	-10.271
▁esta	-10.2711
ключ	-10.2713
NA	-10.2714
rian	-10.2717
ƙ	-10.2721
ģ	-10.2723
Ο	-10.2726
τά	-10.2727
ួ	-10.2727
җ	-10.2727
ထ	-10.2727
ਧ	-10.2728
구	-10.2728
ຸ	-10.2728
ሽ	-10.2728
마	-10.2728
ዘ	-10.2728
▁fra	-10.2734
▁শ	-10.2735
пад	-10.2738
ено	-10.2738
far	-10.274
లా	-10.2744
مى	-10.2744
κο	-10.2746
▁মা	-10.2747
ସ୍	-10.2749
▁غ	-10.2764
ім	-10.2771
ამ	-10.2791
▁या	-10.2792
juk	-10.2794
し	-10.2795
abo	-10.2796
إ	-10.2798
ച്ച	-10.2812
shme	-10.2816
గు	-10.2819
bia	-10.2823
▁web	-10.2829
رى	-10.2838
čí	-10.2838
40	-10.2839
জন	-10.2839
▁tw	-10.2844
▁مع	-10.2847
лик	-10.2847
▁kau	-10.2849
యం	-10.2854
કો	-10.2854
ंग	-10.2857
பா	-10.2861
▁پی	-10.2864
▁الإ	-10.2866
miz	-10.2867
ሮ	-10.2867
andi	-10.287
ரா	-10.2871
plat	-10.2872
▁κα	-10.2878
ந்து	-10.2881
▁kes	-10.2881
▁চ	-10.2881
▁umu	-10.2889
ჯ	-10.289
کا	-10.2891
λή	-10.2893
won	-10.2894
ઉ	-10.2894
సం	-10.2897
pus	-10.2898
вен	-10.2899
مه	-10.29
▁dal	-10.2901
tant	-10.2901
Ν	-10.2913
โ	-10.2913
ຈ	-10.2913
مر	-10.2915
▁কর	-10.2916
▁مل	-10.2918
DA	-10.292
লি	-10.2923
τρ	-10.2924
▁stat	-10.2924
inne	-10.2925
▁vid	-10.2928
ват	-10.2929
bol	-10.2944
дэг	-10.2945
ოთ	-10.2949
плат	-10.2949
jor	-10.2949
ତି	-10.2951
▁വി	-10.2953
म्	-10.2955
וד	-10.296
▁gh	-10.2966
each	-10.2967
tava	-10.2969
ání	-10.2973
ST	-10.2975
▁dur	-10.2977
zel	-10.2977
▁fel	-10.2977
اني	-10.2987
▁ഉ	-10.2989
isse	-10.2991
င်း	-10.2992
יש	-10.2993
ಂದ	-10.2994
ère	-10.2997
▁Mor	-10.2999
▁Av	-10.3
ntu	-10.3003
ақ	-10.3004
על	-10.3005
ره	-10.3007
бі	-10.301
ته	-10.3014
▁ד	-10.3017
▁Ein	-10.3017
ాడు	-10.302
θεί	-10.302
оз	-10.3021
SE	-10.3026
ழ	-10.3026
דר	-10.3029
خوا	-10.3031
▁ఎ	-10.3036
▁Δ	-10.304
تو	-10.3041
▁ما	-10.3042
ische	-10.3046
үр	-10.3052
קו	-10.3057
يع	-10.3063
nici	-10.3063
aux	-10.3065
אל	-10.307
ខ	-10.3075
▁dar	-10.3075
sı	-10.3076
യാ	-10.3077
ուր	-10.3079
▁dre	-10.3081
ন্ত	-10.3081
лю	-10.3084
▁Α	-10.3085
turi	-10.3087
عم	-10.309
▁meg	-10.3092
ମ୍	-10.3094
▁pros	-10.3095
▁छ	-10.3101
့	-10.3101
만	-10.3102
ځ	-10.3102
થી	-10.3104
zwe	-10.3104
▁koh	-10.3104
▁الج	-10.3108
▁sar	-10.311
ነት	-10.311
▁Ко	-10.3111
drž	-10.3116
nice	-10.3116
mbang	-10.3117
ຫ	-10.3118
bur	-10.3119
▁Č	-10.3125
ಜ	-10.3126
ване	-10.3131
देश	-10.3136
ें	-10.3138
бар	-10.3141
ستان	-10.3142
▁under	-10.3144
λι	-10.3149
wm	-10.3151
ologi	-10.3152
lise	-10.3155
वी	-10.3155
शी	-10.3158
hle	-10.3159
▁inform	-10.3161
szer	-10.3165
ない	-10.3168
▁pak	-10.3171
გი	-10.3171
RI	-10.3173
jó	-10.3178
stā	-10.3182
▁mak	-10.3183
एको	-10.3184
hel	-10.3188
▁kir	-10.3189
anje	-10.3193
δε	-10.3194
వు	-10.3202
်	-10.3203
kita	-10.3204
ମା	-10.3208
нес	-10.3208
▁public	-10.3209
خر	-10.3213
сці	-10.3216
▁tal	-10.322
टी	-10.3222
য়ে	-10.3222
دو	-10.3223
રા	-10.3232
lık	-10.3234
IA	-10.3236
ອ	-10.3236
ವೆ	-10.3237
දා	-10.3237
tà	-10.3238
час	-10.3246
maha	-10.3248
කර	-10.3255
▁ان	-10.3262
ಾರ	-10.3262
জা	-10.3263
miş	-10.3266
ଲା	-10.3266
آ	-10.3267
Л	-10.3272
▁mont	-10.3276
▁പ്ര	-10.3282
▁હ	-10.3284
నా	-10.3288
▁sau	-10.329
▁או	-10.3292
ჩ	-10.3294
ຊ	-10.3294
္	-10.3294
동	-10.3294
유	-10.3294
화	-10.3294
ങ്ങൾ	-10.3294
▁نو	-10.3301
▁ተ	-10.3302
▁prev	-10.3305
hala	-10.3307
ٹر	-10.3309
punkt	-10.331
▁sko	-10.3313
ış	-10.3322
മായ	-10.3323
▁кр	-10.3333
בע	-10.3334
▁izv	-10.3336
rika	-10.3338
▁akt	-10.3343
IC	-10.3343
▁тур	-10.3345
னி	-10.3348
ята	-10.3349
AT	-10.3352
maq	-10.3355
ping	-10.3356
కా	-10.3357
AM	-10.3359
▁кө	-10.336
▁off	-10.3364
fana	-10.3366
aidh	-10.3374
وس	-10.3374
чен	-10.3376
صر	-10.3377
μη	-10.3383
они	-10.3384
حر	-10.3386
නා	-10.3388
ଲ୍	-10.3388
60	-10.3389
bile	-10.3391
hia	-10.3394
werk	-10.3394
▁ibi	-10.3395
ír	-10.3395
▁ਉ	-10.3395
াৰ	-10.3395
▁Ş	-10.3407
▁finan	-10.341
الي	-10.3411
ွ	-10.3413
▁Τ	-10.3413
▁tas	-10.3413
▁fun	-10.3416
īv	-10.3417
יד	-10.342
▁הש	-10.3423
ಕೆ	-10.3426
նել	-10.3429
كە	-10.3431
نو	-10.3435
ભ	-10.3435
ಡ್	-10.3441
yat	-10.3446
pak	-10.3448
▁так	-10.3455
▁ទ	-10.3457
صل	-10.346
rios	-10.3461
τέ	-10.3462
աս	-10.3464
▁Ing	-10.3469
уб	-10.3469
▁yu	-10.3472
าย	-10.3478
ਸਾ	-10.3478
▁lau	-10.3482
chten	-10.3489
ྱ	-10.3489
イ	-10.349
だ	-10.349
ដ	-10.349
세	-10.349
ஜ	-10.349
ភ	-10.349
রি	-10.3491
တ်	-10.3491
▁επι	-10.3492
Ä	-10.3493
▁gel	-10.3494
▁بی	-10.3494
wel	-10.3495
வே	-10.3496
kala	-10.3496
ř	-10.3497
ġġ	-10.3503
EL	-10.3504
▁ara	-10.3512
akse	-10.3513
kou	-10.3524
פּ	-10.3524
ඩ	-10.3526
عد	-10.3536
ଯ	-10.3537
▁ndi	-10.3541
ष	-10.3545
цион	-10.3546
kup	-10.3547
▁dan	-10.3555
ém	-10.3557
ника	-10.3557
чин	-10.3566
լի	-10.3567
inti	-10.3567
▁кар	-10.3569
▁zv	-10.3569
す	-10.357
▁cri	-10.3575
نت	-10.3578
▁sun	-10.3578
али	-10.3583
තා	-10.3583
дын	-10.3587
ਤੀ	-10.3593
నే	-10.3595
ош	-10.3598
уп	-10.3599
▁ann	-10.3602
▁כ	-10.3608
▁sav	-10.361
ذا	-10.3613
▁हो	-10.3614
00	-10.3616
▁contr	-10.3617
▁ку	-10.3619
مح	-10.362
cə	-10.3627
ছ	-10.363
דו	-10.363
▁пры	-10.3632
కో	-10.3633
טע	-10.3638
ое	-10.3639
▁teg	-10.3639
▁prí	-10.3641
tako	-10.3643
▁гар	-10.3648
રે	-10.3648
лған	-10.3651
▁she	-10.3654
ेल	-10.366
ార్	-10.3661
ання	-10.367
жен	-10.3674
ೆಯ	-10.3676
▁doda	-10.3677
uto	-10.3679
▁ide	-10.368
ेर	-10.3681
ခ	-10.3684
▁Yo	-10.3685
▁تر	-10.3689
ќ	-10.369
할	-10.369
ৈ	-10.369
った	-10.369
ింగ్	-10.3694
్యా	-10.3699
लि	-10.37
aigh	-10.3701
సా	-10.3701
чет	-10.3701
ssä	-10.3703
ступ	-10.3703
ρό	-10.3704
tima	-10.371
מס	-10.3711
▁present	-10.3713
▁Ö	-10.372
▁بول	-10.372
▁kont	-10.3722
хан	-10.3723
رات	-10.3725
hom	-10.3728
يب	-10.373
▁Inter	-10.3735
ಲ್ಲ	-10.3735
ney	-10.374
wang	-10.3742
ាយ	-10.3744
ально	-10.3746
టీ	-10.3747
khu	-10.3756
ttu	-10.3765
য	-10.3766
ич	-10.3766
▁ក	-10.3768
tok	-10.3773
ದು	-10.3775
▁Chi	-10.3775
▁għa	-10.3778
▁үз	-10.3779
ଥିଲ	-10.3781
▁ס	-10.3782
rac	-10.3783
▁સં	-10.3785
arı	-10.3788
▁mili	-10.379
▁pal	-10.3793
▁сал	-10.3795
ლა	-10.3796
ять	-10.3797
lass	-10.3798
ிற	-10.3798
▁mun	-10.3798
ário	-10.3799
raj	-10.38
מר	-10.38
кой	-10.38
irí	-10.3805
श्	-10.3806
וק	-10.3807
isten	-10.3808
▁оста	-10.3811
مۇ	-10.3815
ech	-10.3819
നം	-10.3821
▁oku	-10.3821
▁lag	-10.3822
ské	-10.3827
gere	-10.3831
іл	-10.3839
kaz	-10.3841
imit	-10.3844
▁Ц	-10.3845
anza	-10.3846
لك	-10.3848
ුව	-10.3858
ပ	-10.386
liga	-10.386
ండి	-10.3862
ਨਾ	-10.3865
કાર	-10.3869
מח	-10.3874
mą	-10.3874
čk	-10.3879
èt	-10.3882
ione	-10.3882
▁Š	-10.3885
ō	-10.3889
ੜ	-10.3891
れ	-10.3891
ଷ	-10.3894
ど	-10.3894
ီ	-10.3894
ơ	-10.3894
과	-10.3894
ښ	-10.3894
ଙ୍କ	-10.3895
вед	-10.3897
stvo	-10.3904
ının	-10.3905
ží	-10.3905
У	-10.3906
еді	-10.3906
ായി	-10.3907
ವಾ	-10.3907
şi	-10.3908
lè	-10.3908
ِي	-10.3909
እ	-10.391
ҳои	-10.3912
വാ	-10.3916
azzjoni	-10.3917
өт	-10.3918
دن	-10.3918
▁як	-10.3919
ғ	-10.3919
ിക്കുന്ന	-10.392
ಾಗಿ	-10.3924
வை	-10.3924
кен	-10.3925
▁ala	-10.3925
вно	-10.3926
ଉ	-10.393
მის	-10.3933
▁ම	-10.3934
▁δ	-10.3936
▁col	-10.3939
ağı	-10.3939
wydd	-10.3939
ത്തില	-10.3941
▁kol	-10.3941
zwa	-10.3941
esse	-10.3943
▁aw	-10.3944
dən	-10.3946
maan	-10.3947
out	-10.395
ίου	-10.3957
dži	-10.3963
ator	-10.3967
fre	-10.3967
▁promo	-10.3969
tig	-10.3974
كر	-10.3975
fur	-10.3976
దా	-10.3977
▁జ	-10.3977
▁Mon	-10.3979
বল	-10.398
mək	-10.3984
▁Мо	-10.3993
▁sla	-10.3996
மா	-10.3999
▁kop	-10.4
اپ	-10.4003
ား	-10.4003
▁registr	-10.4005
rach	-10.401
OS	-10.401
யா	-10.4016
ათ	-10.4017
шта	-10.4018
US	-10.4018
ové	-10.4021
হা	-10.4029
дол	-10.4036
EN	-10.4036
▁proces	-10.4037
▁gam	-10.404
नि	-10.4048
▁war	-10.4048
▁ple	-10.4054
▁spa	-10.4057
▁pap	-10.4062
rica	-10.4064
ங்கள	-10.4066
ං	-10.4066
पी	-10.4067
کن	-10.4069
▁uk	-10.407
aji	-10.407
َا	-10.4074
▁pare	-10.4076
▁sé	-10.4078
ետ	-10.4078
ىتى	-10.4079
80	-10.4082
dah	-10.4083
মান	-10.4083
áin	-10.4084
жил	-10.4084
▁and	-10.4085
िन	-10.4088
קה	-10.4088
nach	-10.4089
கி	-10.4092
み	-10.4103
ồ	-10.4103
ứ	-10.4103
ア	-10.4103
치	-10.4103
ັນ	-10.4103
▁pří	-10.4109
аш	-10.411
▁ඇ	-10.4113
llis	-10.4115
ρη	-10.4116
বা	-10.4117
үл	-10.4117
▁өз	-10.4117
ага	-10.4118
▁رو	-10.4121
uran	-10.4123
▁ಮಾಡ	-10.4124
▁bur	-10.4129
wyd	-10.4131
▁mil	-10.4131
▁دو	-10.4131
row	-10.4133
stí	-10.4133
▁tab	-10.4142
▁produc	-10.4142
ুল	-10.4144
يز	-10.4144
úil	-10.4144
جل	-10.4144
ઈ	-10.4147
għa	-10.4148
ाउन	-10.4154
szy	-10.4155
ξη	-10.4156
▁Che	-10.4157
್ಯಾ	-10.4159
▁ද	-10.4161
кон	-10.4165
fir	-10.417
▁olu	-10.417
▁کار	-10.4174
▁bre	-10.4177
diri	-10.418
OR	-10.4183
šu	-10.4183
▁را	-10.4184
nding	-10.4185
ರಾ	-10.4186
berg	-10.4188
ია	-10.4189
ంట	-10.4189
ría	-10.419
dde	-10.4193
▁Ap	-10.4196
ota	-10.4197
جه	-10.4197
▁مش	-10.4205
▁ris	-10.421
weni	-10.4213
сты	-10.4214
лә	-10.4215
lot	-10.4216
дың	-10.4217
aithe	-10.4218
dala	-10.422
තර	-10.4226
ლე	-10.4227
יות	-10.4228
ਾਈ	-10.4233
้	-10.4233
ରା	-10.4233
یه	-10.4233
áz	-10.4233
mena	-10.4234
èl	-10.4239
lep	-10.4239
нен	-10.4245
่า	-10.4249
kama	-10.425
මු	-10.425
▁mó	-10.4259
stva	-10.426
بل	-10.4264
مار	-10.4265
▁yap	-10.4267
mula	-10.4269
еп	-10.427
əm	-10.4272
طر	-10.4274
▁War	-10.4274
▁sor	-10.428
▁situa	-10.4284
дө	-10.4287
nyi	-10.4287
िंग	-10.4292
▁Bre	-10.4292
▁lan	-10.4298
siz	-10.43
iyo	-10.4305
▁gün	-10.4306
ρω	-10.4309
▁teh	-10.4309
தா	-10.4311
▁نا	-10.4312
rung	-10.4313
ሁ	-10.4314
ঠ	-10.4315
է	-10.4315
ඳ	-10.4315
၀	-10.4315
ኝ	-10.4315
실	-10.4315
운	-10.4315
ຂ	-10.4315
합니	-10.4316
▁сто	-10.4316
τικ	-10.4316
kuti	-10.4316
▁ngo	-10.4317
حت	-10.4318
եք	-10.4318
imin	-10.432
▁osob	-10.4321
ൾ	-10.4323
szt	-10.4324
▁Mas	-10.4329
თა	-10.4329
oka	-10.4331
ður	-10.4334
طب	-10.4335
αι	-10.4339
tore	-10.4342
▁fol	-10.4345
ვის	-10.4346
ებული	-10.4346
▁set	-10.4348
රා	-10.4348
áva	-10.435
മായി	-10.435
्व	-10.4352
کل	-10.4357
▁nor	-10.4357
ից	-10.4359
▁ከ	-10.4365
tari	-10.4366
dě	-10.4371
سر	-10.4372
රු	-10.4378
ság	-10.4378
ір	-10.4379
▁الر	-10.4382
git	-10.4383
ncia	-10.4384
▁mata	-10.4387
BA	-10.4391
انه	-10.4391
▁upp	-10.4394
▁rad	-10.4398
ès	-10.4399
▁tem	-10.4403
▁maj	-10.441
ец	-10.441
мат	-10.4412
▁የሚ	-10.4415
nyt	-10.4419
main	-10.4422
▁sign	-10.4423
ám	-10.4423
itate	-10.4423
جم	-10.4424
રો	-10.4429
▁aug	-10.4434
ාව	-10.4435
ುತ್ತ	-10.4436
burg	-10.4437
য়া	-10.4443
meld	-10.4444
σα	-10.4444
றி	-10.4449
iche	-10.445
ries	-10.446
▁мас	-10.446
альн	-10.4463
ंद	-10.4465
ву	-10.4466
▁produkt	-10.4468
▁deci	-10.4472
▁ច	-10.4476
твор	-10.4477
▁vel	-10.4477
▁συν	-10.4477
يات	-10.4478
żi	-10.448
לע	-10.4482
ത്തി	-10.4483
નો	-10.4486
ահ	-10.4488
adau	-10.4488
मो	-10.4488
▁Ur	-10.4489
▁jak	-10.449
rán	-10.4491
რთ	-10.4491
▁interes	-10.4493
▁Mag	-10.4496
כה	-10.4498
ವಿ	-10.45
දී	-10.4509
▁кон	-10.4513
вор	-10.4517
बर	-10.4517
கிற	-10.4519
èn	-10.452
▁मु	-10.4524
▁reco	-10.453
분	-10.4533
ূ	-10.4533
куп	-10.4536
▁ef	-10.4536
ungan	-10.4537
▁የተ	-10.4538
సు	-10.4538
▁ສ	-10.4541
▁सम	-10.4545
▁दु	-10.4546
▁test	-10.4551
נג	-10.4552
▁obr	-10.4554
ότητα	-10.4555
жы	-10.4559
▁maka	-10.4562
▁వ	-10.4563
▁Ben	-10.4566
عب	-10.4571
▁उप	-10.4574
▁ਗ	-10.4575
වේ	-10.4576
▁До	-10.4579
▁Cons	-10.4579
ास	-10.458
▁ફ	-10.4585
kı	-10.4588
rig	-10.4588
மி	-10.4594
ција	-10.4596
మ్	-10.4598
nego	-10.4601
সি	-10.4602
ਦੇ	-10.4602
ћ	-10.4604
lom	-10.4608
ēr	-10.4609
М	-10.4609
ách	-10.4611
իր	-10.4611
æg	-10.4614
▁apr	-10.4615
երի	-10.4616
తు	-10.4618
▁Я	-10.4621
ുന്ന	-10.4626
▁घ	-10.4626
ээр	-10.4634
▁Bur	-10.4635
▁Не	-10.4635
vik	-10.4638
tisk	-10.464
གས	-10.464
▁net	-10.4646
بت	-10.4654
▁پر	-10.4657
мін	-10.4658
זו	-10.4659
ifa	-10.4659
ելու	-10.4661
kir	-10.4663
стро	-10.4664
▁mad	-10.4668
يق	-10.4668
▁plo	-10.4671
حد	-10.4673
ность	-10.4676
ijas	-10.4677
vær	-10.4682
ಕಾ	-10.4682
▁gri	-10.4683
bí	-10.4685
ιο	-10.4685
▁Sha	-10.4686
uden	-10.4688
ích	-10.4689
రం	-10.4691
ET	-10.4691
ದ್	-10.4691
gram	-10.4693
hau	-10.47
ოდ	-10.4701
pada	-10.4702
ligi	-10.4705
▁kul	-10.4712
▁25	-10.4714
▁ଏ	-10.4716
מד	-10.4717
ismo	-10.4721
رج	-10.4722
▁dhi	-10.4726
лга	-10.4726
rà	-10.4727
מא	-10.4728
▁Па	-10.4733
▁lin	-10.4735
কার	-10.4738
▁arm	-10.474
▁gla	-10.4741
▁organ	-10.4742
გან	-10.4744
▁Ger	-10.4744
▁eks	-10.4748
ალურ	-10.475
ÉÉ	-10.4755
ແ	-10.4755
문	-10.4755
ђ	-10.4755
៍	-10.4755
レ	-10.4755
ません	-10.4755
▁ਪ੍ਰ	-10.4755
▁say	-10.4756
▁δια	-10.4756
▁baz	-10.4757
వి	-10.4757
рав	-10.476
▁przy	-10.4761
ান	-10.4762
▁ដ	-10.4764
кы	-10.4765
ाठी	-10.4768
ト	-10.4771
دىن	-10.4772
ણી	-10.4772
ësi	-10.4775
ලා	-10.4775
▁vz	-10.4779
íocht	-10.4782
ەك	-10.4785
▁пол	-10.4787
▁전	-10.479
வர்	-10.4796
▁Hor	-10.4799
gor	-10.48
ധ	-10.4804
cción	-10.4805
ления	-10.4805
టా	-10.481
▁Gar	-10.481
َّ	-10.4815
ετε	-10.4816
▁kah	-10.4818
▁Та	-10.4818
ĝo	-10.4819
ον	-10.4827
્લ	-10.483
eurs	-10.4832
ագ	-10.4837
عمل	-10.4837
قد	-10.4838
▁tru	-10.4839
дор	-10.4841
ଲି	-10.4845
ffe	-10.4856
tional	-10.4856
ză	-10.4859
କା	-10.4861
jë	-10.4862
▁주	-10.4863
▁grad	-10.4866
cam	-10.487
୍ର	-10.4871
чны	-10.4877
ഭ	-10.4877
ъл	-10.4878
នា	-10.488
▁vin	-10.488
מות	-10.4881
זי	-10.4882
ень	-10.4883
альны	-10.4884
zenia	-10.4893
▁прав	-10.4896
xx	-10.4898
בת	-10.4899
эс	-10.49
assa	-10.4902
डी	-10.4905
lha	-10.4906
מש	-10.4908
▁pov	-10.491
რის	-10.4911
▁қо	-10.4913
وش	-10.4915
pul	-10.4917
лады	-10.4921
klu	-10.4921
lás	-10.4923
ാന്	-10.4925
്യ	-10.4926
atan	-10.4928
▁Aus	-10.4928
▁있	-10.4933
íonn	-10.4946
▁Ye	-10.4947
roj	-10.4948
më	-10.4949
▁cas	-10.4949
▁કર	-10.4951
هن	-10.4952
ṣ	-10.4961
zko	-10.4965
нт	-10.4966
▁пар	-10.4967
دل	-10.4969
▁수	-10.4974
સ્ત	-10.4975
ાન	-10.4976
క్ష	-10.498
ಳಿ	-10.498
ship	-10.4982
ď	-10.4982
ճ	-10.4982
ჭ	-10.4982
ሌ	-10.4982
단	-10.4982
ઝ	-10.4982
ፋ	-10.4982
ଷ୍ଟ	-10.4982
▁გამო	-10.4983
▁histori	-10.4983
има	-10.4984
▁problem	-10.4985
ници	-10.499
CA	-10.4991
dė	-10.4994
▁Gen	-10.4996
ინ	-10.4997
▁sistem	-10.4998
šti	-10.4999
bah	-10.5001
▁bla	-10.5006
rzy	-10.5011
ள்	-10.5013
ργ	-10.502
өг	-10.5021
она	-10.5023
kol	-10.5029
▁pou	-10.5035
▁բ	-10.5037
öv	-10.5039
▁Bal	-10.5039
▁त्या	-10.5041
ការ	-10.5042
ең	-10.5048
нима	-10.5052
▁الد	-10.5057
wing	-10.5058
▁fram	-10.5059
tás	-10.5062
्स	-10.5064
anka	-10.5068
▁स्व	-10.5071
vod	-10.5076
īt	-10.5077
▁estr	-10.5077
סט	-10.5078
ель	-10.5081
ļa	-10.5082
വി	-10.5085
▁جا	-10.509
глед	-10.5091
ád	-10.5094
או	-10.5102
000	-10.5104
જા	-10.5104
ക്ഷ	-10.5104
▁ту	-10.5109
גי	-10.5109
ීම	-10.511
▁hy	-10.5111
ško	-10.5115
▁let	-10.5116
वार	-10.5117
▁दे	-10.5119
▁toe	-10.5119
here	-10.5122
рг	-10.5122
ಿಂದ	-10.5125
▁don	-10.5126
▁avan	-10.5127
قي	-10.5134
ನ್ನ	-10.5138
іст	-10.5139
ční	-10.514
ိ	-10.5141
cil	-10.5144
בל	-10.5146
రణ	-10.5146
hun	-10.5148
▁pok	-10.515
hil	-10.515
för	-10.5151
чна	-10.5151
culo	-10.5154
▁auto	-10.5154
აში	-10.5155
▁mö	-10.5156
زم	-10.5156
ču	-10.5163
lab	-10.5167
▁cyf	-10.5171
して	-10.5171
cja	-10.5172
30	-10.5174
▁Fl	-10.5175
සු	-10.5176
▁not	-10.5176
ଫ	-10.5178
гра	-10.5182
▁bin	-10.5182
ήσει	-10.5188
▁jin	-10.5188
kite	-10.5189
▁உ	-10.519
দা	-10.5197
فت	-10.5197
grafi	-10.5199
שת	-10.5204
▁ফ	-10.5205
▁popul	-10.5205
▁ఫ	-10.5206
over	-10.5207
▁Can	-10.521
ψ	-10.5212
ொ	-10.5212
ጉ	-10.5214
여	-10.5214
ယ	-10.5215
ષ	-10.5215
ۆ	-10.5215
ဘ	-10.5215
ち	-10.5215
ซ	-10.5215
ዕ	-10.5215
터	-10.5215
છ	-10.5215
థ	-10.5215
ຮ	-10.5215
ቁ	-10.5215
ጫ	-10.5215
개	-10.5215
년	-10.5215
모	-10.5215
▁telefon	-10.5215
▁defini	-10.5218
lap	-10.5219
ną	-10.522
▁sú	-10.5224
ىي	-10.5227
▁pře	-10.5228
வில்	-10.523
గ్	-10.5231
φορ	-10.5234
kake	-10.5238
ує	-10.524
side	-10.524
பி	-10.524
πα	-10.524
ван	-10.5242
мон	-10.5248
ování	-10.5249
ÑÉÑ	-10.525
দি	-10.525
ತ್	-10.5251
ଟି	-10.5254
▁Um	-10.5255
▁நி	-10.5256
ады	-10.5257
ія	-10.5258
wyr	-10.526
▁On	-10.5262
▁ಜ	-10.5265
ਵੇ	-10.5266
քի	-10.5267
▁mala	-10.5267
dü	-10.527
း	-10.527
кү	-10.5272
kken	-10.5272
▁activ	-10.5274
ক্	-10.528
ीय	-10.5283
miseks	-10.5283
კა	-10.5288
లే	-10.5289
તી	-10.529
יע	-10.5292
pang	-10.5293
ям	-10.5294
▁plat	-10.5295
інде	-10.5305
▁Қ	-10.531
туу	-10.5314
িয়ে	-10.5315
▁кра	-10.5322
க்கும்	-10.5326
hem	-10.5328
гч	-10.5328
▁Dis	-10.533
▁lit	-10.5334
teko	-10.5335
주	-10.5339
▁ug	-10.5339
▁dol	-10.5341
લા	-10.5341
cial	-10.5341
ાં	-10.5342
нал	-10.5342
▁таб	-10.5342
▁jar	-10.5344
RO	-10.5346
ење	-10.5347
וני	-10.5348
անց	-10.5352
▁Tri	-10.5356
▁tit	-10.5356
Е	-10.5357
▁пи	-10.5358
ную	-10.5361
▁במ	-10.5369
▁પા	-10.5371
čne	-10.5379
ნის	-10.5379
ування	-10.5381
ਬਾ	-10.5385
▁model	-10.5386
تب	-10.5387
▁tei	-10.539
gno	-10.5392
ğu	-10.5393
ື	-10.5408
నం	-10.5408
ווי	-10.541
raf	-10.5412
▁rece	-10.5415
ሞ	-10.5416
▁bet	-10.5417
▁кам	-10.5427
▁sec	-10.5433
▁vor	-10.5438
бр	-10.5439
ેટ	-10.544
বার	-10.544
ление	-10.5442
له	-10.5443
ME	-10.5449
▁baş	-10.5452
ပြ	-10.5453
경	-10.5453
ሊ	-10.5453
ঘ	-10.5453
ご	-10.5453
무	-10.5453
աղ	-10.5454
лын	-10.5454
▁орган	-10.5456
ობა	-10.5458
يار	-10.5458
ON	-10.5462
quer	-10.5462
חר	-10.5464
▁kara	-10.5465
▁જો	-10.5469
মে	-10.5474
éier	-10.5476
ىيە	-10.5484
้า	-10.5485
▁Dan	-10.5489
ীয়	-10.549
vita	-10.5492
▁dat	-10.5493
лиз	-10.5495
бод	-10.5496
▁ગ	-10.5496
▁rela	-10.5498
čni	-10.5499
▁slu	-10.5503
merk	-10.5504
ിയ	-10.5505
ND	-10.5508
צע	-10.5511
▁ለመ	-10.5517
imh	-10.5518
ènci	-10.5518
▁post	-10.5521
ফ	-10.5525
ksyon	-10.5528
▁hab	-10.553
ithi	-10.553
itat	-10.5531
zima	-10.5534
ਕਰ	-10.5537
▁ਵਿ	-10.5538
lly	-10.5538
veni	-10.5538
▁list	-10.5538
ає	-10.5539
▁ord	-10.5543
▁grup	-10.5543
чер	-10.5544
ରୁ	-10.5548
▁нас	-10.5553
▁tum	-10.5555
tation	-10.5557
▁pove	-10.5558
արկ	-10.5563
▁verk	-10.5569
▁ас	-10.5572
झ	-10.5574
▁Ü	-10.5575
itz	-10.5578
гээ	-10.5588
ுகிற	-10.5589
▁Zo	-10.559
шен	-10.5592
իկ	-10.5594
եղ	-10.5602
ılı	-10.5603
UN	-10.5608
γε	-10.5608
ivo	-10.5611
▁Kan	-10.5618
▁cit	-10.5619
зем	-10.5622
ារ	-10.5623
▁Mal	-10.5638
hua	-10.5639
lī	-10.564
্ম	-10.5641
▁lum	-10.5643
phu	-10.5644
nang	-10.5644
▁Comp	-10.5651
жат	-10.5653
κα	-10.5657
▁kra	-10.5662
tage	-10.5662
ījum	-10.5665
▁Cal	-10.5665
யை	-10.5666
גו	-10.5668
ovat	-10.5671
▁Со	-10.5673
12	-10.5677
સ્ટ	-10.5678
रण	-10.5679
pọ	-10.5679
▁olma	-10.5686
ಯಲ್ಲಿ	-10.5693
ଛ	-10.5695
간	-10.5696
ះ	-10.5696
यो	-10.5697
ٍ	-10.5697
ሙ	-10.5697
ጭ	-10.5697
ổ	-10.5697
거	-10.5697
ಷ್ಟ	-10.5697
▁inclu	-10.5697
شى	-10.57
▁při	-10.57
▁Ji	-10.5702
мар	-10.5705
▁mang	-10.5706
▁Ө	-10.5709
ним	-10.571
lj	-10.5711
TE	-10.5711
дам	-10.5711
pal	-10.5711
eerd	-10.5715
▁تع	-10.5715
▁gan	-10.5718
ungu	-10.5723
jung	-10.5723
žu	-10.5723
elli	-10.5728
▁គ	-10.573
▁spre	-10.5731
ত্র	-10.5733
▁एक	-10.5733
ĉ	-10.5733
טו	-10.5735
esc	-10.5741
▁хар	-10.5742
ڻ	-10.5744
чка	-10.5749
PA	-10.5756
فل	-10.5758
papa	-10.5759
וא	-10.5759
▁Fin	-10.576
hed	-10.576
▁mark	-10.5762
యూ	-10.5764
ød	-10.5764
ιά	-10.5775
▁шу	-10.5776
ത്ര	-10.5778
mesi	-10.5785
▁पु	-10.579
▁sele	-10.5791
keta	-10.5796
▁kost	-10.5797
▁mana	-10.5798
عت	-10.5799
sins	-10.58
णे	-10.5805
ðu	-10.5808
ائي	-10.5809
wch	-10.581
cken	-10.581
bé	-10.5812
▁zvi	-10.5812
ంత	-10.5812
100	-10.5814
ác	-10.5818
ന്ന	-10.5818
bir	-10.5823
شن	-10.5824
బ	-10.5825
गर	-10.5832
▁Са	-10.5833
شار	-10.5836
ິ	-10.5836
маг	-10.5836
κό	-10.5838
▁tá	-10.5839
▁кел	-10.5842
രം	-10.5842
ৰ্	-10.5849
▁रा	-10.585
ös	-10.5851
▁sim	-10.5851
▁ħa	-10.5853
ાઇ	-10.5858
воз	-10.5859
▁सु	-10.5861
گان	-10.5861
▁hand	-10.5862
▁lap	-10.5869
້າ	-10.5872
aŭ	-10.5872
ುವ	-10.5874
مت	-10.5875
▁кол	-10.5875
বি	-10.5876
▁pris	-10.5879
ោះ	-10.5882
ļu	-10.5883
aria	-10.5883
▁Ant	-10.5883
В	-10.5883
েন	-10.5884
लो	-10.589
نَ	-10.5891
▁То	-10.5891
സി	-10.5892
ores	-10.5893
▁onder	-10.5895
հ	-10.5896
▁jedn	-10.5896
▁ym	-10.5899
šte	-10.59
▁απ	-10.59
▁arti	-10.5903
bud	-10.5905
▁shu	-10.5906
увати	-10.5906
전	-10.5908
ερ	-10.5909
դր	-10.5916
лення	-10.5921
▁bl	-10.5927
▁ਖ	-10.593
ਦੀ	-10.593
ани	-10.593
्ने	-10.5932
▁bun	-10.5932
णी	-10.5934
dim	-10.5938
കൾ	-10.5938
mış	-10.5941
▁し	-10.5941
పి	-10.5942
વી	-10.5945
chod	-10.5946
ਥ	-10.5946
회	-10.5947
계	-10.5947
ੌ	-10.5947
ể	-10.5947
관	-10.5947
된	-10.5947
크	-10.5947
▁administra	-10.5947
မှာ	-10.5947
▁প্ৰ	-10.5947
ကျ	-10.5947
ամբ	-10.5948
ଛି	-10.5948
פת	-10.5948
ගේ	-10.5951
▁እን	-10.5952
కొ	-10.5955
▁ئې	-10.5955
قة	-10.5957
AC	-10.5963
▁læ	-10.5963
ED	-10.5965
work	-10.5967
рос	-10.5969
चार	-10.597
▁कि	-10.5971
ದಿ	-10.5972
▁mol	-10.5973
вър	-10.5977
buru	-10.5981
ಾದ	-10.5983
zí	-10.5986
স্ত	-10.5987
lå	-10.5988
лага	-10.599
ತೆ	-10.5991
گە	-10.6003
ვარ	-10.6008
▁mh	-10.6009
▁iš	-10.6009
ۋ	-10.6012
äm	-10.6014
θη	-10.6016
wys	-10.6021
▁Ce	-10.6021
mist	-10.6023
▁studi	-10.6028
ბა	-10.6032
▁కా	-10.6032
▁стар	-10.6033
▁Ven	-10.6033
אות	-10.6034
ік	-10.6035
ணி	-10.6036
▁بل	-10.6036
лов	-10.604
▁intern	-10.6042
▁સા	-10.6044
ওয়া	-10.6052
TO	-10.6054
eix	-10.6058
time	-10.6059
ҳи	-10.6063
چە	-10.6065
▁буд	-10.6066
ିକ	-10.6068
▁Ama	-10.6068
▁klas	-10.6071
▁Dar	-10.6073
бира	-10.6077
أس	-10.608
ือ	-10.6081
richt	-10.6083
table	-10.6084
ēm	-10.6086
▁temp	-10.6087
әт	-10.6089
seb	-10.6089
▁Mer	-10.6092
ൊ	-10.6095
дал	-10.6101
පා	-10.6105
ôn	-10.6106
vesti	-10.6107
iyê	-10.6108
▁مد	-10.6108
ਹਿ	-10.6113
ৰি	-10.6114
asta	-10.6115
ப்பட	-10.6117
▁Á	-10.6117
ności	-10.6117
্ব	-10.612
şə	-10.612
▁Cas	-10.6121
າຍ	-10.6123
ուս	-10.6129
बी	-10.613
ரை	-10.6131
▁Ol	-10.6135
ści	-10.6139
lərin	-10.6141
غل	-10.6141
ောက်	-10.6141
ball	-10.6143
योग	-10.6147
▁Iz	-10.6148
▁disc	-10.6149
IP	-10.6149
ayı	-10.6149
ствен	-10.6149
する	-10.6153
tual	-10.6157
▁seri	-10.6162
Б	-10.6162
lement	-10.6163
lē	-10.6166
▁kai	-10.6167
ove	-10.6169
ilgan	-10.617
ਅ	-10.6173
▁sco	-10.6173
▁が	-10.6177
▁servi	-10.618
▁rh	-10.6185
оло	-10.6185
ән	-10.6187
ಪ್	-10.6187
▁Ent	-10.6187
қи	-10.6191
▁Il	-10.6192
toja	-10.6193
grad	-10.6198
िल	-10.6198
హా	-10.6199
▁pil	-10.6199
ラ	-10.6203
ไ	-10.6203
ɗ	-10.6203
ټ	-10.6203
ઠ	-10.6203
ቆ	-10.6203
ቡ	-10.6203
ፊ	-10.6203
つ	-10.6203
러	-10.6203
ฟ	-10.6203
ಬೇಕ	-10.6203
rish	-10.6207
иот	-10.6213
ברי	-10.6213
▁Mari	-10.6214
▁tip	-10.6216
▁מש	-10.6217
bara	-10.6218
▁tut	-10.6222
rid	-10.6222
նում	-10.6222
ći	-10.6225
λογ	-10.6226
▁උ	-10.6226
cing	-10.6227
▁Lin	-10.6229
ální	-10.6237
text	-10.6241
▁biz	-10.6243
த்	-10.6244
لە	-10.6245
ട്ടി	-10.6247
полн	-10.6248
▁हा	-10.6253
राज	-10.6262
RA	-10.6263
धी	-10.6263
▁যা	-10.6264
▁בא	-10.6264
ப்பட்ட	-10.6266
▁போ	-10.6268
uksen	-10.627
ടി	-10.6272
дық	-10.6278
णार	-10.6278
▁جو	-10.6279
શે	-10.6279
લી	-10.628
luk	-10.6281
less	-10.6281
etta	-10.6283
▁my	-10.6284
ಿದ	-10.6291
rop	-10.6292
ପରି	-10.6294
▁Ç	-10.6295
▁Bro	-10.6297
ово	-10.6298
▁ezi	-10.63
21	-10.6304
▁бе	-10.6313
šie	-10.6317
үүл	-10.6319
ற்க	-10.632
anı	-10.6321
back	-10.6322
▁Ang	-10.6324
anie	-10.6325
pend	-10.6331
▁пл	-10.6331
▁sho	-10.6333
enge	-10.6336
ню	-10.6339
vanja	-10.6339
PS	-10.6342
▁nom	-10.6347
ਨੀ	-10.6347
▁lib	-10.6348
▁tau	-10.6351
čių	-10.6356
▁ہو	-10.6359
डा	-10.6361
▁real	-10.6364
bod	-10.6367
рек	-10.6368
haka	-10.6369
שר	-10.6369
foto	-10.637
glia	-10.6373
idos	-10.6373
dzo	-10.6376
▁پو	-10.6381
šta	-10.6383
ating	-10.6384
ిక	-10.6386
бил	-10.6391
చి	-10.6391
ಂಡ	-10.6395
τί	-10.6395
▁cru	-10.6398
ട്	-10.6399
ग्र	-10.6401
oedd	-10.6409
лып	-10.6412
lima	-10.6416
ical	-10.6416
ਕਾ	-10.6416
ជា	-10.6419
నీ	-10.642
یق	-10.642
fra	-10.6421
ন্দ	-10.6423
කා	-10.6423
▁Pan	-10.6425
inten	-10.6425
▁appar	-10.6429
ière	-10.6433
лай	-10.6434
veik	-10.6438
zó	-10.644
تي	-10.6442
لىرى	-10.6443
cola	-10.6445
റി	-10.6449
eria	-10.6452
አ	-10.6453
anto	-10.6454
წყ	-10.6459
yczn	-10.6463
▁Far	-10.6464
ៅ	-10.6464
▁hit	-10.6465
용	-10.6465
ປ	-10.6466
ଁ	-10.6466
내	-10.6466
ູ	-10.6466
င့်	-10.6466
တွေ	-10.6466
ሻ	-10.6466
ጅ	-10.6466
ặ	-10.6466
업	-10.6466
조	-10.6466
중	-10.6466
▁continu	-10.6467
ັດ	-10.6467
താ	-10.6468
קט	-10.647
ัน	-10.647
▁Ми	-10.6481
ществ	-10.6483
▁kla	-10.6484
▁yaka	-10.6485
90	-10.6486
ttä	-10.6486
gawa	-10.6486
lığı	-10.6488
▁pemb	-10.6489
ቸው	-10.649
lta	-10.6491
ുകള	-10.6491
ھا	-10.6493
וס	-10.6495
▁суд	-10.6496
уға	-10.65
70	-10.6501
vno	-10.6501
ளி	-10.6501
▁ו	-10.6512
vati	-10.6514
SS	-10.6514
æl	-10.6517
fri	-10.6522
▁gör	-10.6523
гер	-10.6529
алар	-10.6531
▁San	-10.6533
ಿತ	-10.6533
law	-10.6535
نام	-10.6538
зор	-10.6542
▁Franc	-10.6547
into	-10.655
άζ	-10.655
▁الخ	-10.6551
kker	-10.6552
ડા	-10.6553
کت	-10.6556
μάτ	-10.6558
കു	-10.656
▁ಸಂ	-10.656
▁તે	-10.6562
nə	-10.6564
არი	-10.6565
ifika	-10.6566
აღ	-10.6569
īgi	-10.657
▁izi	-10.6571
yè	-10.6575
ئی	-10.6577
baba	-10.6579
دىكى	-10.6579
iswa	-10.6579
සා	-10.6583
star	-10.6583
▁sö	-10.6584
▁tap	-10.6585
рам	-10.6586
iska	-10.6593
▁роз	-10.6594
▁gir	-10.6599
rọ	-10.6601
▁دی	-10.6602
niz	-10.6602
ნდ	-10.6604
аст	-10.6609
▁сп	-10.6617
▁kā	-10.6618
VI	-10.662
pper	-10.6621
▁kuch	-10.6622
nega	-10.6625
ழு	-10.6625
рес	-10.6625
▁personal	-10.6626
فس	-10.6627
مز	-10.6627
غر	-10.6632
ovan	-10.6632
ņa	-10.6633
▁απο	-10.6634
ড়	-10.6635
وض	-10.6636
AP	-10.6636
▁xa	-10.6637
▁наш	-10.6639
פס	-10.664
ىل	-10.6642
ായ	-10.6644
́	-10.6644
στα	-10.6648
ہی	-10.6651
AD	-10.6658
õi	-10.6658
▁pozi	-10.6659
জি	-10.6662
بد	-10.6664
▁aut	-10.6667
▁ange	-10.6669
SC	-10.6671
▁ofer	-10.6671
▁Zu	-10.6677
▁alt	-10.6679
CH	-10.6679
▁lab	-10.6679
עס	-10.668
களை	-10.6685
ارت	-10.6687
ලි	-10.6688
▁dos	-10.6689
ිත	-10.6694
▁Ind	-10.6697
पुर	-10.6697
əl	-10.6699
୍ୟା	-10.6703
CI	-10.6712
mission	-10.6719
ద్	-10.6726
્ટ	-10.673
▁Би	-10.6731
говор	-10.6732
abilit	-10.6732
▁pow	-10.6734
ક્ષ	-10.6736
eye	-10.6736
භ	-10.6736
었	-10.6737
ờ	-10.6737
미	-10.6737
진	-10.6737
ሱ	-10.6737
Ն	-10.6737
ډ	-10.6737
ณ	-10.6737
ዛ	-10.6737
ự	-10.6737
γραφ	-10.6737
▁परि	-10.6737
schaft	-10.6737
ңыз	-10.6737
▁pār	-10.6738
▁pul	-10.6742
▁え	-10.6743
ಟ್ಟ	-10.6744
ਕਾਰ	-10.6744
▁сред	-10.6746
수	-10.6746
σία	-10.6747
▁ανα	-10.6749
гляд	-10.6751
▁చేయ	-10.6751
وه	-10.6752
▁הב	-10.6753
גר	-10.6753
σκ	-10.6757
wol	-10.676
Σ	-10.6764
whi	-10.6767
گاه	-10.6768
itse	-10.6769
ವರ	-10.6772
▁Gal	-10.6774
රි	-10.6775
ன்ற	-10.6776
үүд	-10.6778
▁кара	-10.6788
▁xu	-10.6792
עה	-10.6794
्म	-10.6798
cro	-10.6804
బా	-10.6806
глас	-10.6807
ილ	-10.6814
ák	-10.6814
▁Hel	-10.6816
ത്തെ	-10.6817
▁fl	-10.6818
නු	-10.6823
ίε	-10.6828
של	-10.6828
கை	-10.6833
▁redu	-10.6833
ము	-10.6835
ិត	-10.6837
▁till	-10.6837
fal	-10.6838
▁menye	-10.6842
ವು	-10.6843
ated	-10.6843
IL	-10.6845
ೊ	-10.6846
tup	-10.6846
лад	-10.6848
DI	-10.6848
imento	-10.6849
വ്	-10.6853
▁ھە	-10.6854
▁fly	-10.6854
▁هم	-10.6855
▁soci	-10.686
вет	-10.6861
▁अनु	-10.6863
▁Esp	-10.6869
ток	-10.6871
ष्ट	-10.6872
ये	-10.6874
▁cost	-10.6875
രാ	-10.6882
гын	-10.6886
▁بد	-10.6889
ನಾ	-10.6889
gil	-10.689
луу	-10.6891
ηση	-10.6892
▁Cy	-10.6892
▁bot	-10.6894
▁бир	-10.6895
▁Fran	-10.6897
ंच	-10.6899
βα	-10.6902
ız	-10.6906
оо	-10.6906
قب	-10.6907
ён	-10.6912
బ్	-10.6913
16	-10.6915
▁ras	-10.6916
ચા	-10.6918
ndle	-10.6921
▁жыл	-10.6923
▁bag	-10.6928
▁edil	-10.693
onder	-10.6933
टर	-10.6934
τό	-10.6934
low	-10.6935
▁нав	-10.6935
לא	-10.6936
▁év	-10.6936
šč	-10.6939
ಾಗ	-10.6942
ես	-10.6942
éri	-10.6944
▁egy	-10.6946
eux	-10.6947
انت	-10.6947
metr	-10.6948
▁anti	-10.6948
itä	-10.6956
യില്	-10.6957
вання	-10.6958
▁bon	-10.6965
ైన	-10.6965
ecek	-10.6967
جد	-10.6974
ttaa	-10.6977
▁loo	-10.6977
▁Gro	-10.6982
liet	-10.6986
तो	-10.6987
▁план	-10.6993
್ರ	-10.6993
тно	-10.7001
radi	-10.7004
ное	-10.7006
მო	-10.7007
ött	-10.7008
▁30	-10.701
सर	-10.7011
ტა	-10.7012
вать	-10.7012
ಿಲ್ಲ	-10.7013
ှ	-10.7013
으	-10.7014
ဲ	-10.7014
ဲ့	-10.7014
ク	-10.7014
ృ	-10.7014
Ս	-10.7015
ٽ	-10.7015
ஏ	-10.7015
ໄ	-10.7015
영	-10.7015
▁ekonomi	-10.7015
ଥିବା	-10.7015
နေ	-10.7015
▁Em	-10.7015
្យ	-10.7015
▁elektr	-10.7015
▁kvalit	-10.7016
šan	-10.7017
བས	-10.7018
▁част	-10.702
0	-10.7021
্ৰ	-10.7023
מצ	-10.7026
▁ఏ	-10.7029
aina	-10.703
▁techn	-10.7031
екс	-10.7031
לב	-10.7033
λί	-10.7036
▁aka	-10.7036
▁Sen	-10.7037
වි	-10.7039
ID	-10.704
ξε	-10.7043
보	-10.7045
କାର	-10.7045
diği	-10.7048
የ	-10.7052
اری	-10.7053
cept	-10.7053
▁Cho	-10.7057
സം	-10.706
াম	-10.7062
ტო	-10.7063
کار	-10.7066
nol	-10.7067
▁الك	-10.7069
ിന്	-10.7072
ెట్	-10.7072
▁euro	-10.7076
▁மு	-10.7076
▁कु	-10.7077
hari	-10.7079
хай	-10.708
λά	-10.708
lən	-10.7084
klik	-10.7084
ява	-10.7087
▁pay	-10.7087
స్త	-10.7091
ាន	-10.7093
ācija	-10.7094
22	-10.7096
bwa	-10.7098
▁rend	-10.71
ମାନ	-10.7101
istä	-10.7103
▁rek	-10.7103
сә	-10.7103
▁mill	-10.7105
▁dep	-10.7107
mpo	-10.7108
▁प्रति	-10.7108
ਰੇ	-10.711
▁musi	-10.7111
ші	-10.7112
▁mí	-10.7117
▁さ	-10.7117
לח	-10.7122
isto	-10.7123
HA	-10.7124
▁гор	-10.7127
ğa	-10.7136
▁Sin	-10.7138
▁മു	-10.7143
ۋا	-10.7146
▁pasa	-10.7148
usia	-10.7153
വര	-10.7154
▁mik	-10.7159
વે	-10.7162
▁firm	-10.7162
リ	-10.7163
யாக	-10.7168
tú	-10.7174
ಶ್	-10.7175
▁දෙ	-10.7178
сен	-10.7178
▁ngoku	-10.718
usan	-10.7182
רש	-10.7187
▁Medi	-10.7194
▁Wil	-10.7196
gled	-10.7197
▁ngu	-10.7204
ljiv	-10.7211
реш	-10.7213
ਕਿ	-10.7213
ைய	-10.7216
בד	-10.7219
▁الص	-10.7222
▁тре	-10.7222
ત્ર	-10.7225
▁camp	-10.7228
ент	-10.7233
ुक	-10.7235
ję	-10.7238
▁cla	-10.7238
▁kok	-10.7241
tsu	-10.7241
▁cen	-10.7242
дон	-10.7243
zés	-10.7245
ائل	-10.7245
់	-10.7246
wit	-10.7247
lech	-10.7251
▁div	-10.7254
▁uy	-10.7256
రే	-10.7258
ෙන්	-10.7259
dura	-10.7262
▁ref	-10.7264
ρια	-10.7264
ruh	-10.7264
ኖ	-10.7266
ості	-10.7267
טר	-10.7267
ிக்க	-10.7272
ider	-10.7273
ték	-10.7277
pru	-10.7279
ове	-10.728
কি	-10.7281
め	-10.7281
▁premi	-10.7282
պան	-10.7282
կան	-10.7284
зан	-10.7289
▁вр	-10.7296
▁tin	-10.7296
ware	-10.7296
кри	-10.7299
ఖ	-10.73
ಖ	-10.73
ໂ	-10.73
ံ	-10.73
ዚ	-10.73
금	-10.73
래	-10.73
Å	-10.73
သူ	-10.7301
eiten	-10.7301
ψη	-10.7302
нын	-10.7303
tuko	-10.7304
ത്തിന്	-10.7304
▁sab	-10.7307
▁Mis	-10.7308
▁Wal	-10.7311
MP	-10.7312
▁potreb	-10.7312
gyn	-10.7313
ikus	-10.7314
pic	-10.7315
▁oko	-10.7317
tää	-10.7317
lisa	-10.7318
דה	-10.7323
sht	-10.7323
کش	-10.7324
یب	-10.7326
อง	-10.7327
ाने	-10.7328
▁આપ	-10.7336
▁सि	-10.7336
▁شا	-10.7338
▁일	-10.7341
ondo	-10.7342
пі	-10.7342
сно	-10.7345
▁prac	-10.7345
әл	-10.7348
PR	-10.7353
جان	-10.7353
▁Auto	-10.7354
cional	-10.7357
ໍາ	-10.7359
CE	-10.736
bele	-10.7363
пан	-10.7368
lẹ	-10.7368
சு	-10.7373
▁Bas	-10.7374
▁tho	-10.7375
▁dag	-10.7376
ņu	-10.7381
▁sak	-10.7383
▁exist	-10.7386
ادر	-10.7388
▁tren	-10.7389
pass	-10.7392
▁خا	-10.7394
bide	-10.7396
ਇ	-10.7396
дно	-10.74
ପ୍	-10.7402
▁skr	-10.7407
սի	-10.7407
ék	-10.7408
▁kil	-10.7411
▁kë	-10.7412
ਈ	-10.7413
▁super	-10.7414
EA	-10.7416
▁tai	-10.742
▁dro	-10.742
TI	-10.7421
ಹಾ	-10.7421
▁pop	-10.7423
ждени	-10.7425
SI	-10.7431
ៀ	-10.7431
ෙන	-10.7438
спо	-10.7444
ਲੀ	-10.7446
got	-10.745
izin	-10.7451
▁сер	-10.7453
▁projekt	-10.7455
מל	-10.7459
äll	-10.746
ಲೆ	-10.7463
ppe	-10.7465
▁fri	-10.7466
▁gai	-10.7468
▁Yu	-10.7469
nova	-10.7472
પર	-10.7476
wala	-10.7477
ზი	-10.748
рак	-10.748
ਹਾ	-10.7481
рк	-10.7482
gü	-10.7485
თვის	-10.7487
fyl	-10.7489
elser	-10.7489
анг	-10.7493
θηκ	-10.7493
ික	-10.7494
ори	-10.7501
▁gor	-10.7502
▁gö	-10.7503
றை	-10.7503
رض	-10.7507
▁menga	-10.7511
emos	-10.7513
utta	-10.7514
δρ	-10.7516
пор	-10.7517
اث	-10.7518
έν	-10.7521
▁இரு	-10.7523
▁Vis	-10.7525
200	-10.7527
ző	-10.753
alan	-10.753
гов	-10.7532
▁Shi	-10.7542
▁regi	-10.7543
ेत	-10.7545
זר	-10.7547
ለው	-10.755
დება	-10.7551
cara	-10.7552
▁Str	-10.7553
াল	-10.7554
TH	-10.7554
ാന	-10.7555
▁hak	-10.7558
ът	-10.7558
▁Az	-10.7558
▁dire	-10.756
▁ພ	-10.7563
чита	-10.7565
गी	-10.7566
▁Hal	-10.7567
ാം	-10.7567
iran	-10.7567
▁яв	-10.7568
ιών	-10.7576
անի	-10.7576
vjet	-10.7582
පු	-10.7583
▁syn	-10.7584
دې	-10.7585
bert	-10.7586
сті	-10.7588
ഫ	-10.759
qə	-10.7593
▁thu	-10.7594
명	-10.7594
ౌ	-10.7594
ෑ	-10.7594
ቻ	-10.7594
ጀ	-10.7594
안	-10.7594
히	-10.7594
ઘ	-10.7594
▁individu	-10.7594
▁Amerik	-10.7596
kund	-10.7598
zett	-10.76
đen	-10.7601
ċċ	-10.7603
ಕಾರ	-10.7605
сни	-10.7607
▁ಉ	-10.7609
òl	-10.761
fru	-10.7613
▁Про	-10.7614
light	-10.7617
nung	-10.7617
ầ	-10.7621
تل	-10.7625
قال	-10.7625
ण्याच	-10.7628
вой	-10.763
თან	-10.763
رف	-10.7633
▁Tak	-10.7635
સર	-10.7635
CO	-10.7637
μά	-10.7638
▁dok	-10.7643
▁Mil	-10.7647
مال	-10.7652
સ્	-10.7656
▁indica	-10.7656
biet	-10.7658
▁pää	-10.7659
telj	-10.766
خط	-10.7661
גע	-10.7663
▁mene	-10.7669
త్ర	-10.7669
▁aku	-10.767
zeka	-10.7674
sama	-10.7677
ней	-10.7678
ண்	-10.7682
חל	-10.7684
ლად	-10.7686
MI	-10.7687
▁köz	-10.7688
ууд	-10.7688
ించి	-10.7689
टा	-10.7695
μπ	-10.7695
esco	-10.7696
▁Се	-10.7698
πά	-10.7699
бав	-10.7703
ūt	-10.7706
▁Ни	-10.771
რებ	-10.7711
name	-10.7711
MO	-10.7712
ਭ	-10.7713
wiri	-10.7713
ので	-10.7714
ಹಿ	-10.7716
upu	-10.7717
▁sí	-10.7718
алық	-10.7718
ој	-10.7718
੍ਰ	-10.7723
▁had	-10.7723
ısı	-10.7725
حص	-10.7725
▁Zi	-10.7726
aith	-10.7727
క్క	-10.7731
ଲେ	-10.7736
ட்டு	-10.7737
▁hum	-10.7738
وری	-10.7739
νει	-10.7742
रु	-10.7742
▁Ə	-10.7742
wl	-10.7743
▁Andr	-10.7743
ации	-10.7744
kumu	-10.7744
ип	-10.7747
▁sü	-10.7747
▁gene	-10.7748
▁pasi	-10.7753
ilia	-10.7755
raw	-10.7756
▁көр	-10.7758
ತು	-10.7763
▁preci	-10.7764
ുന്നു	-10.7766
ką	-10.7767
යට	-10.7768
mann	-10.777
▁সে	-10.7772
empre	-10.7773
▁пода	-10.7774
чески	-10.7774
▁destin	-10.7777
αλ	-10.7779
▁manu	-10.7779
icht	-10.7779
ជ	-10.7779
lach	-10.7782
ีย	-10.7784
یش	-10.7787
වැ	-10.779
rais	-10.7791
▁aktiv	-10.7792
ুর	-10.7793
ەن	-10.7793
атын	-10.7796
حل	-10.7797
նի	-10.78
▁prv	-10.7801
μό	-10.7802
▁dí	-10.7803
▁Vor	-10.7804
ест	-10.7805
tish	-10.7806
ვებ	-10.7807
түү	-10.7809
νό	-10.7811
▁না	-10.7813
փ	-10.7816
ට්	-10.7819
גל	-10.782
gå	-10.7822
▁mwa	-10.7828
ದೇ	-10.7829
lada	-10.783
išk	-10.7833
▁Nov	-10.7834
တာ	-10.7835
sson	-10.7836
▁вид	-10.7837
भा	-10.7839
ថ	-10.784
त्त	-10.784
▁pwo	-10.7841
lıq	-10.7846
يون	-10.7848
▁fon	-10.7848
્યો	-10.785
ဆို	-10.7851
▁Gre	-10.7852
ಂತ	-10.7853
ости	-10.7854
चित	-10.7854
િય	-10.7857
mė	-10.7858
fort	-10.7862
olog	-10.7863
▁ҳа	-10.7864
▁Cam	-10.7865
مل	-10.7866
weza	-10.7867
аць	-10.7868
رق	-10.7868
▁Cat	-10.7871
taka	-10.7872
▁бул	-10.7873
δη	-10.7877
apan	-10.7877
▁ಎ	-10.7878
ఉ	-10.7886
инг	-10.7886
szcz	-10.7887
igt	-10.7889
бә	-10.7891
ūs	-10.7891
▁сво	-10.7891
žit	-10.7892
▁Pla	-10.7893
▁fla	-10.7893
▁ជ	-10.7894
οί	-10.7896
음	-10.7897
국	-10.7897
ኑ	-10.7897
Կ	-10.7897
ڏ	-10.7897
ศ	-10.7897
ቂ	-10.7897
ዱ	-10.7897
Ọ	-10.7897
€	-10.7897
재	-10.7897
▁industri	-10.7897
ဖြစ်	-10.7898
ັບ	-10.7898
ষ্ট	-10.7898
တဲ့	-10.7898
ಕ್ಷ	-10.7898
ಸಲು	-10.7899
▁mb	-10.7899
ադր	-10.7899
하고	-10.79
щен	-10.79
alka	-10.7901
ată	-10.7902
قان	-10.7904
11	-10.7907
▁lev	-10.7908
▁drug	-10.7912
ச்ச	-10.7913
publik	-10.7914
ബ	-10.7915
వర్	-10.7915
▁गु	-10.7915
tumi	-10.7918
æn	-10.792
wur	-10.7922
▁Vol	-10.7923
abilir	-10.7924
▁tí	-10.7926
jící	-10.7927
pata	-10.7927
ສ	-10.7928
▁बि	-10.7928
fall	-10.793
▁др	-10.7931
haya	-10.7934
▁medic	-10.7934
heit	-10.7935
▁pis	-10.7937
▁הג	-10.7941
ərə	-10.7943
ಬ್	-10.7943
īb	-10.7944
kommen	-10.7944
ದ್ದಾರ	-10.7948
▁maks	-10.7951
øg	-10.7951
▁Indi	-10.7951
▁ame	-10.7957
ரம்	-10.7957
դի	-10.7958
ଡ	-10.7961
▁Kor	-10.7963
ours	-10.7967
ρή	-10.7967
nės	-10.7968
ोर	-10.797
दार	-10.797
ագր	-10.797
רג	-10.7971
tuar	-10.7974
رت	-10.7974
ານ	-10.7978
ையில்	-10.7978
tuur	-10.798
كن	-10.7985
ടെ	-10.7988
▁Бо	-10.7989
▁automat	-10.799
ੱਤ	-10.7991
мент	-10.7994
▁xo	-10.7997
כות	-10.7999
vät	-10.8002
רת	-10.8002
తం	-10.8002
▁seb	-10.8005
აც	-10.8005
から	-10.8006
തു	-10.8009
що	-10.801
24	-10.801
lelo	-10.8012
aksi	-10.802
▁beste	-10.8022
▁над	-10.8023
స్తు	-10.8025
ৃ	-10.8026
▁stran	-10.8026
ഷ്	-10.8027
kö	-10.8028
tzea	-10.803
NI	-10.8031
லும்	-10.8035
IM	-10.8036
▁autor	-10.8037
êm	-10.8038
رام	-10.8041
19	-10.8042
▁dosta	-10.8042
17	-10.8046
óir	-10.8048
ָ	-10.8052
ināt	-10.8057
▁چا	-10.8058
▁bul	-10.8058
ସ୍ତ	-10.8059
öm	-10.8061
▁مج	-10.8062
▁conta	-10.8062
നാ	-10.8063
tör	-10.8064
kult	-10.8066
hanga	-10.807
ember	-10.8072
צה	-10.8073
చే	-10.8074
nın	-10.8077
гә	-10.8079
את	-10.8083
unter	-10.8086
ėti	-10.809
δικ	-10.8091
ři	-10.8094
ામ	-10.8095
úl	-10.8095
պես	-10.8097
בש	-10.8098
▁waar	-10.81
ष्	-10.8104
ché	-10.8114
▁gl	-10.8119
▁All	-10.812
zvo	-10.8123
лин	-10.8126
ਿਆਂ	-10.8127
▁Mont	-10.8131
שב	-10.8131
כול	-10.8133
▁Cre	-10.8134
ែ	-10.8134
جز	-10.8136
▁bez	-10.8136
▁ami	-10.8137
ಮಿ	-10.8139
وح	-10.8139
isch	-10.8146
וע	-10.8146
үп	-10.8147
▁best	-10.8148
тин	-10.815
▁cam	-10.8153
▁گر	-10.8153
▁muut	-10.8155
ዎ	-10.8157
ေး	-10.8158
kasi	-10.8159
wood	-10.8163
ሎ	-10.8168
ቶ	-10.8172
wych	-10.8173
йды	-10.8176
rab	-10.8179
wari	-10.8185
isht	-10.8187
▁She	-10.8187
েই	-10.8188
дук	-10.8188
ेक	-10.8189
κέ	-10.8192
ండ్	-10.8192
biri	-10.8192
▁ezin	-10.8194
▁Bel	-10.8196
ээс	-10.8197
вати	-10.8199
iň	-10.82
book	-10.82
ৱ	-10.8201
يى	-10.8207
되	-10.821
우	-10.821
ዓ	-10.821
せ	-10.821
ธ	-10.821
ໃ	-10.821
ሕ	-10.821
려	-10.821
)	-10.821
.	-10.821
ऊ	-10.821
ङ	-10.821
०	-10.821
များ	-10.821
ቤ	-10.821
ỏ	-10.821
や	-10.821
체	-10.821
ាក់	-10.821
କି	-10.821
যোগ	-10.821
бат	-10.821
▁dokument	-10.821
ਫ਼	-10.821
▁участ	-10.8211
▁সং	-10.8211
jąc	-10.8212
buka	-10.8213
▁పరి	-10.8214
ála	-10.8215
▁друг	-10.8215
▁ino	-10.8216
▁või	-10.8217
▁περι	-10.8221
▁hau	-10.8227
▁må	-10.8229
ाव	-10.8229
▁люб	-10.8232
▁element	-10.8235
ନ୍ତ	-10.8236
▁trad	-10.8236
ीत	-10.8236
лаг	-10.8238
dığı	-10.8241
తే	-10.8244
שט	-10.8244
siniz	-10.8245
ský	-10.8246
full	-10.8246
▁politik	-10.8247
ந	-10.8248
ngwa	-10.8249
эв	-10.8251
ვალ	-10.8254
ctive	-10.8256
▁Qa	-10.8257
▁сам	-10.8265
govor	-10.8265
ക്കാ	-10.8268
ائر	-10.827
▁लाग	-10.8271
יח	-10.8271
NG	-10.8271
อน	-10.8277
صف	-10.8279
سان	-10.8282
sında	-10.8284
▁yer	-10.8285
ûn	-10.8285
load	-10.8286
ਮੀ	-10.8291
ରୀ	-10.8293
ਪਾ	-10.8298
▁tama	-10.83
вал	-10.8305
▁sent	-10.8307
EM	-10.8308
▁lid	-10.8308
ffer	-10.8311
▁flu	-10.8316
▁महा	-10.8316
્યુ	-10.8317
▁pela	-10.8317
18	-10.8317
▁amb	-10.8319
гіз	-10.832
ški	-10.8322
▁Те	-10.8324
UR	-10.8328
రో	-10.8329
▁roman	-10.8331
ंक	-10.8332
աք	-10.8333
▁mobil	-10.8337
▁Bru	-10.8338
ିବା	-10.8339
▁Sel	-10.8343
yə	-10.8345
ટી	-10.8349
cular	-10.8351
қта	-10.8351
▁Sur	-10.8352
ثر	-10.8355
▁Sab	-10.8355
τρο	-10.8355
▁Dom	-10.8358
рет	-10.8358
▁жел	-10.836
ičk	-10.8362
mond	-10.8364
ണ്	-10.8365
zana	-10.8366
▁εν	-10.8367
శా	-10.8368
▁out	-10.837
ward	-10.8371
▁Im	-10.8373
ће	-10.8373
▁asu	-10.8377
care	-10.8377
▁mā	-10.8381
ებით	-10.8385
рок	-10.8386
iteit	-10.8386
▁final	-10.8391
▁Kur	-10.8395
cket	-10.8398
itaj	-10.84
ningar	-10.8401
ղ	-10.8406
▁gc	-10.8407
▁سن	-10.8407
agem	-10.8409
▁wel	-10.8413
▁गर्	-10.8414
tīt	-10.8414
alam	-10.8416
ۇر	-10.842
سال	-10.842
وط	-10.8422
▁chan	-10.8423
וש	-10.8425
רב	-10.8425
▁naka	-10.8426
handa	-10.8428
ېر	-10.8429
hul	-10.8432
▁dese	-10.8436
▁арт	-10.8436
سک	-10.8437
ehen	-10.844
▁svar	-10.8441
كا	-10.8446
▁І	-10.8446
हे	-10.8446
▁vet	-10.8449
▁Char	-10.845
▁The	-10.8462
دۇ	-10.8463
بط	-10.8463
тив	-10.8464
рас	-10.8467
mọ	-10.847
لف	-10.8472
حي	-10.8478
শি	-10.8478
ష్	-10.848
▁לש	-10.8484
ଟ୍	-10.8486
шка	-10.849
نده	-10.8491
▁Mac	-10.8492
▁Ed	-10.8494
gura	-10.8494
क्र	-10.8498
laka	-10.8504
reich	-10.8504
حق	-10.8506
ҳо	-10.8511
▁ജ	-10.8514
ಸು	-10.8517
front	-10.8519
രണ	-10.8524
ലെ	-10.8525
ọn	-10.8525
ഡ	-10.8526
▁plu	-10.8529
ಒ	-10.8529
MS	-10.8529
ସି	-10.853
त्	-10.853
minen	-10.8532
연	-10.8532
ဒ	-10.8532
행	-10.8532
식	-10.8532
Λ	-10.8532
০	-10.8532
ሬ	-10.8532
ቲ	-10.8532
ዶ	-10.8532
ጽ	-10.8532
당	-10.8532
며	-10.8532
않	-10.8532
야	-10.8532
없	-10.8532
ရှိ	-10.8533
ướ	-10.8533
geme	-10.8533
സ്ഥ	-10.8533
օր	-10.8534
▁predstav	-10.8534
▁ਮੁ	-10.8534
වු	-10.8536
ഡ്	-10.8536
were	-10.8538
▁prefer	-10.8538
▁пла	-10.8539
ildi	-10.854
angkan	-10.854
▁mara	-10.8541
▁inspir	-10.8542
▁darb	-10.8542
▁सो	-10.8545
▁polo	-10.8545
▁kole	-10.8546
▁Mad	-10.855
▁sala	-10.8553
ура	-10.8555
▁ditu	-10.8557
ėjo	-10.8557
ği	-10.8561
pital	-10.8562
గి	-10.8569
ਲੇ	-10.857
▁వె	-10.8575
pekt	-10.8578
טער	-10.8583
untu	-10.8589
áll	-10.8589
ारी	-10.8591
δί	-10.8593
חבר	-10.8595
հան	-10.8597
يك	-10.8598
▁бір	-10.8598
teur	-10.86
itos	-10.8601
▁Fil	-10.8603
▁limit	-10.8604
කු	-10.8608
ڈی	-10.861
unan	-10.8612
دہ	-10.8613
עד	-10.8615
essen	-10.8617
لام	-10.8618
ībā	-10.8618
uksi	-10.8621
tige	-10.8621
link	-10.8622
basa	-10.8626
שמ	-10.8628
čaj	-10.8629
RS	-10.8631
ଦି	-10.8634
rank	-10.8637
▁ase	-10.8638
▁въ	-10.8641
בק	-10.8643
▁яз	-10.8644
न्त	-10.8644
owy	-10.8647
▁osa	-10.8647
ματο	-10.8649
کس	-10.8652
στη	-10.8653
OL	-10.8654
лей	-10.8654
▁tras	-10.8654
rico	-10.8657
▁Sig	-10.8658
τικό	-10.8659
្ន	-10.8664
kses	-10.8666
జ్	-10.8669
یف	-10.8671
াত	-10.8671
ရာ	-10.8679
лат	-10.8679
bora	-10.8682
ुन	-10.8682
khala	-10.8684
सह	-10.8685
▁stor	-10.8686
ലി	-10.8688
joni	-10.8692
శ్	-10.8692
സ്റ്റ	-10.8699
കള	-10.87
jski	-10.8701
▁lai	-10.8702
ոս	-10.8703
ender	-10.8705
▁பிர	-10.8707
یٹ	-10.8708
λό	-10.8709
ề	-10.8711
З	-10.8712
Մ	-10.8714
प्र	-10.8718
مین	-10.8719
рен	-10.872
mény	-10.8721
hand	-10.8723
ნებ	-10.8729
టు	-10.8729
گەن	-10.8731
ఫ	-10.8732
պետ	-10.8733
գր	-10.8735
्त	-10.874
▁ప్రా	-10.8742
znam	-10.8746
ຫມ	-10.8749
ním	-10.8751
દા	-10.8751
▁grav	-10.8751
რტ	-10.8752
▁సమ	-10.8753
stå	-10.8754
òn	-10.8754
▁Ban	-10.8755
band	-10.8759
ক্ত	-10.8763
িল	-10.8764
▁centr	-10.8768
▁refer	-10.8769
ări	-10.877
дэ	-10.8771
kong	-10.8773
▁rob	-10.8778
طل	-10.8778
▁görü	-10.8781
▁conce	-10.8783
عَ	-10.8787
lyk	-10.8788
ेश	-10.8789
בט	-10.8795
ിക	-10.8797
eachd	-10.8798
λου	-10.8799
шки	-10.88
▁há	-10.88
ligen	-10.8804
قت	-10.8809
15	-10.881
▁Lie	-10.8812
▁tala	-10.8816
ෂ	-10.8817
כת	-10.8818
يدۇ	-10.8818
γα	-10.8818
όν	-10.8824
▁band	-10.8827
▁кал	-10.8827
tlich	-10.8827
▁vra	-10.8828
его	-10.8833
cı	-10.8835
िए	-10.8836
▁ئو	-10.8837
▁kapa	-10.8838
▁map	-10.8839
نک	-10.8839
kî	-10.8839
στο	-10.884
▁institu	-10.884
ච	-10.8841
தே	-10.8841
स्था	-10.8843
▁এক	-10.8845
ាម	-10.8847
NS	-10.885
▁eff	-10.8853
rann	-10.8853
▁zdrav	-10.8855
Ç	-10.8859
▁py	-10.886
kirin	-10.8862
よ	-10.8865
ํา	-10.8865
៊	-10.8866
발	-10.8866
ѓ	-10.8866
メ	-10.8866
물	-10.8866
Η	-10.8866
ਏ	-10.8866
ཐ	-10.8866
바	-10.8866
ាត់	-10.8866
দেশ	-10.8866
စ်	-10.8866
こと	-10.8867
▁දැ	-10.8867
ាប់	-10.8868
្វ	-10.8868
äng	-10.8868
ሪያ	-10.8868
ilor	-10.8869
▁kombin	-10.8871
ņem	-10.8872
ické	-10.8872
▁Trans	-10.8873
ಟಿ	-10.8874
ıb	-10.8876
▁қыз	-10.8876
عاد	-10.8876
సీ	-10.8878
stad	-10.8879
▁ax	-10.8881
ृ	-10.8882
vek	-10.8884
голем	-10.8886
teil	-10.889
▁Minist	-10.8895
уулах	-10.8897
гур	-10.8897
▁sigur	-10.8897
হি	-10.8898
සේ	-10.8899
heng	-10.8899
fika	-10.89
זה	-10.89
മ്മ	-10.8901
▁fond	-10.8902
▁pirm	-10.8902
gó	-10.8903
пас	-10.8903
tong	-10.8903
▁masa	-10.8905
▁او	-10.8906
CC	-10.8906
ujú	-10.8907
wend	-10.8908
huku	-10.8912
öf	-10.8913
▁Tar	-10.8915
եմ	-10.8916
ოდა	-10.892
עות	-10.8921
gba	-10.8929
лары	-10.8932
ώσει	-10.8933
ંગ	-10.8935
עת	-10.8936
жан	-10.8936
øk	-10.8942
45	-10.8943
гән	-10.8943
▁las	-10.8946
ાવ	-10.8952
old	-10.8953
üş	-10.8954
▁svet	-10.8955
్య	-10.8962
мог	-10.8963
рия	-10.8968
đ	-10.897
රී	-10.8975
ürü	-10.8976
▁dhe	-10.8977
▁жүр	-10.8978
्यू	-10.8981
tanga	-10.8982
ंब	-10.8982
14	-10.8987
▁Kh	-10.8987
פל	-10.899
▁noti	-10.8995
ште	-10.8999
atte	-10.8999
لَ	-10.9002
tino	-10.9003
ंतर	-10.9005
▁εκ	-10.9005
إن	-10.9007
යු	-10.9007
fum	-10.9014
וה	-10.9014
తా	-10.9015
▁emi	-10.9018
▁bou	-10.902
בח	-10.9023
▁공	-10.9027
መን	-10.903
▁funk	-10.9031
krat	-10.9037
ھو	-10.9037
യു	-10.9037
▁kit	-10.9041
▁esper	-10.9041
ља	-10.9046
embe	-10.9047
கா	-10.9048
▁pem	-10.9049
ärk	-10.9051
llet	-10.9055
ones	-10.9059
gina	-10.9061
▁fá	-10.9061
etan	-10.9062
யான	-10.9063
ngkap	-10.9064
לט	-10.9065
क्त	-10.9067
িয়া	-10.907
lish	-10.9076
inci	-10.9076
ಾರ್	-10.9077
բեր	-10.9081
▁بو	-10.9081
nico	-10.9084
▁spē	-10.9087
ünü	-10.9088
ীর	-10.9089
▁direct	-10.9089
▁આવ	-10.9092
ছিল	-10.9093
ಾಯ	-10.9097
AB	-10.9097
▁fé	-10.9098
▁amp	-10.9099
dó	-10.9102
▁að	-10.9103
fanya	-10.9104
ୱ	-10.9104
shobo	-10.9106
вае	-10.9107
▁pomo	-10.9109
▁vec	-10.9112
▁genera	-10.9112
ranje	-10.9114
਼	-10.9114
ppen	-10.9115
väl	-10.9115
ળા	-10.9116
▁kesk	-10.9117
23	-10.912
▁käy	-10.9122
сия	-10.9122
lub	-10.9122
▁stop	-10.9123
ến	-10.9126
րա	-10.913
▁muu	-10.9134
čka	-10.9138
ىگە	-10.9141
χα	-10.9145
стви	-10.9148
hely	-10.9148
था	-10.9148
тик	-10.9158
ניי	-10.916
ิน	-10.9161
▁leng	-10.9162
رح	-10.9162
ibh	-10.9165
وال	-10.9167
▁הי	-10.9168
▁fill	-10.9169
roll	-10.9171
той	-10.9172
▁prod	-10.9174
ális	-10.9174
seng	-10.9176
した	-10.9183
13	-10.9186
ត្រ	-10.9192
koll	-10.9193
ზა	-10.9193
ཁ	-10.9193
saka	-10.9194
▁ваш	-10.9195
ption	-10.9196
heim	-10.9198
zenie	-10.9198
ktion	-10.9199
টে	-10.9201
ück	-10.9202
لغان	-10.9203
NT	-10.9206
داد	-10.9206
ዲ	-10.9208
▁Mes	-10.9208
рин	-10.9208
こ	-10.9208
ቢ	-10.9209
ッ	-10.921
작	-10.9211
®	-10.9211
Ү	-10.9211
һ	-10.9211
ೌ	-10.9211
ญ	-10.9211
တော့	-10.9211
ኮ	-10.9211
력	-10.9211
말	-10.9211
반	-10.9211
선	-10.9211
저	-10.9211
프	-10.9211
ਯ	-10.9211
BÉE	-10.9211
ပ်	-10.9211
ပြီး	-10.9211
ళ్ల	-10.9211
ူး	-10.9211
ươn	-10.9211
ىدۇ	-10.9211
ระ	-10.9213
ഡി	-10.9213
▁klient	-10.9215
ချ	-10.9216
▁adapt	-10.9216
دد	-10.9217
ደር	-10.9219
▁Ро	-10.9219
వీ	-10.9219
ಾಲ	-10.922
▁Jan	-10.9224
▁kultur	-10.9231
▁speci	-10.9236
▁mult	-10.9238
கள	-10.9239
▁کم	-10.9239
ация	-10.924
bbli	-10.924
рал	-10.9241
দ্ধ	-10.9247
▁aange	-10.925
смотр	-10.925
мын	-10.925
▁представ	-10.9256
EC	-10.9257
▁deb	-10.9257
▁nok	-10.9257
▁وَ	-10.9259
िका	-10.9262
▁kū	-10.9262
▁neg	-10.9266
▁vit	-10.9268
fect	-10.927
▁باز	-10.9273
ହି	-10.9278
empe	-10.9279
▁পরি	-10.9287
▁usa	-10.9288
bû	-10.9289
▁Mah	-10.9292
▁circ	-10.9293
TS	-10.9294
ēl	-10.9303
nosť	-10.9303
عر	-10.9306
لان	-10.9312
оти	-10.9315
дары	-10.9315
एस	-10.9317
ряд	-10.9317
dział	-10.9317
ਾਨ	-10.932
כני	-10.932
▁aplic	-10.932
▁عل	-10.9324
▁kasa	-10.9324
▁By	-10.9324
▁Tro	-10.9325
ിക്കാ	-10.9325
തെ	-10.9326
▁formul	-10.9326
▁jä	-10.9327
без	-10.9329
çı	-10.9329
يح	-10.933
▁পর	-10.9332
ავს	-10.9332
▁Var	-10.9332
enera	-10.9334
لەر	-10.9336
▁Win	-10.9337
کہ	-10.9338
▁bank	-10.9339
кор	-10.9339
үз	-10.9341
▁potr	-10.9345
▁ಸಾ	-10.9345
▁dobr	-10.9353
ادي	-10.9355
קד	-10.9356
jih	-10.936
भाव	-10.9362
▁Bir	-10.9364
ଚା	-10.9366
▁акт	-10.9368
▁गो	-10.9369
ritt	-10.9371
σου	-10.9371
▁publi	-10.9372
gwa	-10.9372
wali	-10.9373
ങ്ങ	-10.9378
▁өс	-10.9384
యి	-10.9385
্ট	-10.9386
யி	-10.9387
▁құ	-10.939
कि	-10.939
itud	-10.9393
تون	-10.94
ергә	-10.9406
head	-10.9406
larda	-10.9408
կար	-10.9408
▁liber	-10.9409
▁gele	-10.9409
дээ	-10.9409
▁atra	-10.9418
ాను	-10.9418
▁Tal	-10.9419
בני	-10.942
imiz	-10.942
වර	-10.9421
▁norm	-10.9421
▁entre	-10.9421
fyr	-10.9426
▁corre	-10.9427
OT	-10.9429
inə	-10.9429
ہر	-10.9431
ସା	-10.9439
ட்டி	-10.944
ദ്	-10.9441
ING	-10.9443
trag	-10.9448
ண்ண	-10.9448
હો	-10.9449
48	-10.9452
بح	-10.9452
lock	-10.9453
вали	-10.9455
İ	-10.9456
ekk	-10.9456
ील	-10.9458
virus	-10.9461
დის	-10.9463
▁patr	-10.9466
medi	-10.9469
χο	-10.9475
▁спр	-10.9475
▁спец	-10.9484
कै	-10.9484
بان	-10.9486
26	-10.9486
კო	-10.9489
あ	-10.9489
വേ	-10.949
▁hotel	-10.9493
সা	-10.9495
▁kontrol	-10.9495
▁App	-10.9501
صح	-10.9503
ស្រ	-10.9503
أَ	-10.9503
អ	-10.9504
ēja	-10.9505
టర్	-10.9505
▁Mü	-10.9506
cina	-10.9508
▁keli	-10.9511
tatu	-10.9511
28	-10.9512
قص	-10.9513
kiri	-10.9513
▁radi	-10.9516
γκ	-10.9517
শা	-10.952
▁παρ	-10.9523
rije	-10.9524
უნ	-10.9536
fod	-10.9536
हर	-10.9538
ojë	-10.9541
νά	-10.9541
ኛ	-10.9544
▁тал	-10.9544
కే	-10.9546
uhan	-10.9547
▁Hol	-10.9548
▁Star	-10.9548
cell	-10.9552
glio	-10.9553
▁funkci	-10.9557
▁Хо	-10.9558
ിക്ക	-10.9559
▁wh	-10.956
тися	-10.9563
▁ئۆ	-10.9565
ություններ	-10.9566
័	-10.9567
ớ	-10.9567
ళ	-10.9568
생	-10.9568
ڙ	-10.9568
ਘ	-10.9568
ཆ	-10.9568
ዩ	-10.9568
ず	-10.9568
ロ	-10.9568
까	-10.9568
속	-10.9568
최	-10.9568
ሜ	-10.9568
használ	-10.9568
łącz	-10.9568
മ്പ	-10.9568
φέρ	-10.9568
▁사용	-10.9568
▁Informa	-10.9569
ĉe	-10.9569
bare	-10.957
håll	-10.957
SP	-10.957
նա	-10.957
етін	-10.9574
ੰਦ	-10.9578
ington	-10.9579
ριο	-10.958
ବେ	-10.9581
▁politi	-10.9583
клад	-10.9583
ħħ	-10.9584
ড়া	-10.9585
▁universit	-10.9585
▁উপ	-10.9586
▁mand	-10.9586
خان	-10.9586
▁Tan	-10.9588
алт	-10.9589
vant	-10.959
▁ئۇ	-10.9594
צר	-10.9594
▁Krist	-10.9599
éis	-10.9599
tory	-10.9601
cchi	-10.9602
wod	-10.9604
IR	-10.9607
لات	-10.9607
▁Мар	-10.9607
ስት	-10.9608
▁дав	-10.961
▁قىل	-10.9615
▁ຫນ	-10.9617
හා	-10.9618
πτ	-10.9619
▁основ	-10.962
▁Да	-10.962
ੱਲ	-10.9621
▁appro	-10.9621
чын	-10.9622
يس	-10.9626
ruz	-10.9628
צא	-10.9632
კი	-10.9634
ىلى	-10.9636
▁carr	-10.9636
▁region	-10.9636
būt	-10.9637
▁anima	-10.9638
زن	-10.9643
FA	-10.9648
▁živ	-10.965
ಗು	-10.9651
жно	-10.9652
ধা	-10.9653
தை	-10.9655
dî	-10.9658
ሮች	-10.9658
šā	-10.9659
այն	-10.9665
iyyət	-10.9667
వచ్చ	-10.9669
מוד	-10.9673
▁இத	-10.9677
ติ	-10.9684
▁mur	-10.9688
▁termin	-10.9691
ଜା	-10.9702
▁kab	-10.9702
wé	-10.9705
▁Jed	-10.9707
inni	-10.9709
ենք	-10.9712
ក្រ	-10.9714
▁Ե	-10.9715
րի	-10.9717
דע	-10.972
down	-10.9722
ісі	-10.9723
▁જે	-10.9724
▁fort	-10.9725
روس	-10.9725
quel	-10.9725
ulat	-10.9727
ুন	-10.973
tré	-10.9732
▁अव	-10.9736
▁sport	-10.9741
න්නේ	-10.9741
▁propos	-10.9742
zera	-10.9745
بات	-10.9746
ställ	-10.9747
▁ସେ	-10.975
▁Cel	-10.9753
ghị	-10.9755
▁зар	-10.9758
нага	-10.9758
quant	-10.9759
পার	-10.9761
لاش	-10.9765
કે	-10.9769
ový	-10.977
▁mul	-10.9773
тері	-10.9775
▁जि	-10.9779
ัง	-10.978
ساب	-10.9782
ුරු	-10.9783
ಮಾ	-10.9788
▁luc	-10.9788
ź	-10.9789
मन	-10.979
сны	-10.9793
▁mind	-10.9793
န်း	-10.9793
зов	-10.98
անք	-10.9803
طلب	-10.9805
zás	-10.9806
வது	-10.9815
mbre	-10.9816
קס	-10.982
▁Flo	-10.9821
գի	-10.9825
ୃ	-10.9827
ించిన	-10.9828
жение	-10.9828
ଂ	-10.9829
દી	-10.9831
▁frem	-10.9831
SD	-10.9831
▁eksp	-10.9832
ਸੀ	-10.9833
▁vei	-10.9833
ۈر	-10.9834
▁açı	-10.9853
σμ	-10.9854
CS	-10.9854
כר	-10.9858
▁jed	-10.9858
มา	-10.9859
▁sum	-10.9861
▁жив	-10.9861
place	-10.9868
మె	-10.9874
ંત	-10.9875
▁fund	-10.9875
ਿਤ	-10.9881
قول	-10.9881
حال	-10.9882
іль	-10.9882
▁мә	-10.9883
▁yaş	-10.9884
OP	-10.9886
▁başla	-10.9887
ેલ	-10.9888
▁Ali	-10.9889
رز	-10.9889
ష్ట	-10.9893
GA	-10.9899
यों	-10.99
▁lok	-10.99
নো	-10.9901
grund	-10.9901
ıcı	-10.9902
ერი	-10.9905
तर	-10.9906
▁cum	-10.9909
сыз	-10.9909
रू	-10.9912
æð	-10.9913
▁вз	-10.992
idwa	-10.9924
тары	-10.9925
batan	-10.9926
ۇش	-10.9926
ışı	-10.9927
▁шар	-10.9929
મી	-10.993
దే	-10.993
ડી	-10.9933
▁الط	-10.9937
ഥ	-10.9937
ಫ	-10.9937
ợ	-10.9938
colo	-10.9938
것	-10.9938
▁գործ	-10.9938
မှ	-10.9938
ឡ	-10.9938
Ž	-10.9938
Ј	-10.9938
ږ	-10.9938
ൃ	-10.9938
ጨ	-10.9938
▁потреб	-10.9938
テ	-10.9938
건	-10.9938
능	-10.9938
등	-10.9938
르	-10.9938
차	-10.9938
호	-10.9938
ɔ	-10.9938
Ә	-10.9938
ඟ	-10.9938
ủ	-10.9938
▁интерес	-10.9938
표	-10.9938
▁собствен	-10.9938
▁constru	-10.9938
▁глав	-10.9939
ကြ	-10.9939
▁partner	-10.9939
ექტ	-10.9939
られ	-10.9939
▁install	-10.9939
▁хүр	-10.9939
ශ්	-10.994
▁Christ	-10.994
வெளி	-10.994
ћи	-10.9942
▁efekt	-10.9942
ուց	-10.9943
ық	-10.9944
เล	-10.9944
▁düş	-10.9945
▁Bil	-10.9946
kelijk	-10.9946
કી	-10.9947
field	-10.9949
kārt	-10.9953
digan	-10.9954
▁import	-10.9954
▁Þ	-10.9957
▁Ан	-10.9957
▁παρα	-10.9959
мор	-10.996
ạn	-10.996
▁Gl	-10.9963
ците	-10.9966
woord	-10.9967
гез	-10.9967
לד	-10.9968
▁bá	-10.9969
wedd	-10.9969
TC	-10.997
▁mela	-10.9971
▁pró	-10.9973
▁கட	-10.9975
▁invest	-10.9977
্ল	-10.9977
▁dop	-10.998
лыг	-10.9981
вид	-10.9982
čan	-10.9985
зв	-10.9989
▁kart	-10.999
graph	-10.999
▁vaz	-10.9992
હે	-10.9992
▁visit	-10.9993
ingiz	-11.0008
नो	-11.0012
ĝa	-11.0018
bild	-11.0018
ľa	-11.0023
нні	-11.0023
▁lokal	-11.0023
রণ	-11.0025
هِ	-11.0026
ალი	-11.0029
▁hay	-11.0031
27	-11.0032
త్త	-11.0032
đa	-11.0033
ற்ப	-11.0034
λει	-11.0039
▁Peng	-11.004
▁Об	-11.0041
tulo	-11.0042
द्ध	-11.0044
xim	-11.0044
dun	-11.0049
▁presta	-11.0053
ville	-11.006
SO	-11.0062
ják	-11.0063
II	-11.0063
قدم	-11.0071
aggio	-11.0071
πι	-11.0073
ось	-11.0073
▁Port	-11.0074
▁på	-11.0074
ىرى	-11.0075
wọ	-11.0075
ഴ	-11.0076
▁aja	-11.0076
いた	-11.0085
ਵਰ	-11.0091
λεί	-11.0091
ък	-11.0092
halt	-11.0093
вон	-11.0093
▁dö	-11.0095
▁vaik	-11.0095
μή	-11.0098
pira	-11.01
▁kend	-11.0101
ічн	-11.0102
LL	-11.0104
ții	-11.0107
▁बे	-11.0109
35	-11.011
ព្រ	-11.011
EX	-11.0112
ഭാ	-11.0113
ền	-11.0114
▁deli	-11.0114
եկ	-11.0114
▁වෙ	-11.0114
AK	-11.0115
ṣẹ	-11.0116
овать	-11.0116
▁Ele	-11.0117
TV	-11.0118
ୂ	-11.012
க்கி	-11.0121
▁leh	-11.0122
ಡೆ	-11.0123
гө	-11.0124
ìn	-11.0125
▁Нов	-11.0126
▁qar	-11.0129
נית	-11.0139
play	-11.0139
▁Kam	-11.0139
▁interess	-11.0144
lọ	-11.0145
ਸਰ	-11.0147
▁Ros	-11.0147
iamo	-11.0147
κή	-11.0149
ಾನ	-11.0151
zira	-11.0151
пре	-11.0152
éad	-11.0154
رك	-11.0158
പ്	-11.0159
ků	-11.0161
ład	-11.0162
టే	-11.0162
σω	-11.0166
dow	-11.0168
րան	-11.0168
▁déc	-11.0168
ბი	-11.017
tioun	-11.0171
▁сур	-11.0173
نڈ	-11.0173
որդ	-11.0175
▁жар	-11.0176
нды	-11.0179
▁senti	-11.0179
eann	-11.0182
aíonn	-11.0182
ണി	-11.0183
ധി	-11.0183
▁शि	-11.0185
ხვ	-11.0185
AI	-11.0195
▁Od	-11.0198
действ	-11.0198
πε	-11.0199
ାୟ	-11.0202
igne	-11.0203
אמ	-11.0208
vier	-11.0209
▁प्रा	-11.0211
▁біл	-11.0212
▁lever	-11.0212
▁char	-11.0213
යන්	-11.0221
ratu	-11.0222
אַנ	-11.0227
▁Tor	-11.0228
лася	-11.0232
भर	-11.0236
▁už	-11.0238
lú	-11.0238
hiri	-11.0238
▁форм	-11.0242
wyn	-11.0244
sional	-11.0252
ּ	-11.0256
யும்	-11.0262
Ö	-11.0263
▁fakt	-11.0268
tụ	-11.027
യിൽ	-11.027
OM	-11.0271
▁fiz	-11.0271
▁Sil	-11.0273
▁общ	-11.0275
RT	-11.0276
▁जो	-11.0277
öd	-11.028
Г	-11.0281
राम	-11.0282
▁tam	-11.0282
иб	-11.0285
kami	-11.0288
વાર	-11.0288
ਿਕ	-11.0291
קל	-11.0292
▁پرو	-11.0293
kset	-11.0307
חת	-11.0307
աշ	-11.0307
ichte	-11.0309
▁Plan	-11.0311
ഒ	-11.0313
▁famil	-11.0313
ಿರುವ	-11.0317
كون	-11.0317
ddy	-11.0319
ությ	-11.0321
khulu	-11.0322
อร์	-11.0322
プ	-11.0323
ۍ	-11.0323
५	-11.0323
ೃ	-11.0323
ྟ	-11.0323
ုံး	-11.0323
ጡ	-11.0323
ữ	-11.0323
ください	-11.0323
와	-11.0323
질	-11.0323
څ	-11.0323
১	-11.0323
ሲ	-11.0323
▁वर्ष	-11.0323
ଣ୍ଡ	-11.0323
▁resp	-11.0323
ሆኑ	-11.0323
ಿಂಗ್	-11.0323
ượ	-11.0323
▁energi	-11.0323
でき	-11.0323
ង់	-11.0324
િંગ	-11.0324
ິດ	-11.0324
pụta	-11.0325
▁Nie	-11.0325
ัก	-11.0328
њ	-11.0328
স্ট	-11.0329
كل	-11.0331
▁postav	-11.0333
99	-11.0334
mica	-11.0335
▁religi	-11.0336
GB	-11.0336
మీ	-11.0338
гон	-11.034
legt	-11.0341
נק	-11.0342
γι	-11.0344
▁metod	-11.0344
øy	-11.0346
▁hav	-11.0348
PC	-11.0349
स्थ	-11.035
▁добр	-11.0352
zaji	-11.0352
ீர்	-11.0352
дык	-11.0354
ակի	-11.0355
යෙන්	-11.0355
▁My	-11.0356
ਗਾ	-11.036
▁Bet	-11.036
▁கொண்ட	-11.0361
55	-11.0363
▁зас	-11.0364
ÉÑ	-11.0365
ත්ත	-11.0367
▁integra	-11.0368
▁jam	-11.037
klad	-11.0373
ગ્ર	-11.0373
moto	-11.0374
ტრ	-11.0375
ախ	-11.0375
બા	-11.0377
▁materi	-11.0378
መስ	-11.0378
ੋਂ	-11.0379
PE	-11.038
пай	-11.038
▁Mak	-11.0381
न्न	-11.0382
▁ସମ	-11.0383
दर	-11.0386
▁kasuta	-11.0386
স্থা	-11.0387
▁sag	-11.0387
▁मे	-11.0388
ahay	-11.0389
▁aplik	-11.039
▁habit	-11.0392
▁strat	-11.0394
▁συ	-11.0394
▁tah	-11.0397
ически	-11.0399
▁posta	-11.0401
▁comun	-11.0402
▁invit	-11.0405
ופ	-11.0408
▁sing	-11.0409
▁čas	-11.0409
wart	-11.041
vision	-11.0413
ောင်	-11.0415
سىز	-11.0415
itev	-11.0416
▁ئىش	-11.0416
liza	-11.0417
DE	-11.0422
граф	-11.0423
▁adres	-11.0425
разу	-11.0429
गे	-11.0429
▁Sim	-11.0431
88	-11.0433
ард	-11.0438
ප්	-11.044
ndung	-11.0441
▁Kol	-11.0441
▁сва	-11.0442
шин	-11.0442
ۈرۈ	-11.0442
▁Edi	-11.0443
AY	-11.0444
ಲಾ	-11.0444
vaka	-11.0445
mpli	-11.0447
ଏ	-11.0447
▁gad	-11.0447
▁cin	-11.0448
рон	-11.0449
▁бөл	-11.0451
▁voi	-11.0451
▁gru	-11.0453
qué	-11.0459
കാ	-11.0459
▁ਸੰ	-11.0459
ninger	-11.046
▁stabil	-11.046
owani	-11.0461
thair	-11.0462
mbah	-11.0463
▁देख	-11.0464
ვრ	-11.0465
▁jaun	-11.047
нски	-11.0474
بىر	-11.0474
ଡି	-11.0475
▁Exp	-11.0476
▁Don	-11.0477
хал	-11.0479
▁just	-11.0481
▁minu	-11.0485
yıl	-11.0487
وك	-11.0489
arkan	-11.0489
▁Ви	-11.0491
▁geç	-11.0492
కర	-11.0493
▁sõ	-11.0495
כט	-11.0495
tellen	-11.0498
▁gaz	-11.0498
εία	-11.0501
▁espa	-11.0501
מכ	-11.0502
PO	-11.0503
▁dest	-11.0504
ಿಕ	-11.0505
ార	-11.0508
মু	-11.051
▁tõ	-11.051
รา	-11.0511
▁баш	-11.0513
្ស	-11.0515
▁иде	-11.0516
▁أن	-11.0516
BC	-11.0517
▁Parti	-11.0519
ёт	-11.052
▁Den	-11.0521
ಕರ	-11.0522
LO	-11.0525
бран	-11.0526
▁нај	-11.053
▁εξ	-11.0534
elijke	-11.0542
lerini	-11.0543
િયા	-11.0546
चाल	-11.0547
ují	-11.0548
▁Bor	-11.055
▁tend	-11.0553
▁дода	-11.0553
legg	-11.0556
ലാ	-11.0562
▁franc	-11.0565
سٹ	-11.0565
ttää	-11.0569
τω	-11.0573
দ্	-11.0573
gung	-11.0574
▁mail	-11.0574
ாய்	-11.0574
პი	-11.0575
ادی	-11.0575
▁карт	-11.0584
▁arg	-11.0584
děl	-11.0588
ાસ	-11.0589
beli	-11.0589
বো	-11.059
▁qal	-11.0591
धान	-11.0591
რება	-11.0591
▁intr	-11.0591
ല്ല	-11.0592
ான்	-11.0594
yèl	-11.0595
byg	-11.0595
րել	-11.0599
ਿੰਦ	-11.0601
kolo	-11.0605
▁fle	-11.0611
▁मह	-11.0613
ئي	-11.0614
posto	-11.0615
тро	-11.0622
▁odpo	-11.0624
ontrol	-11.0624
போது	-11.0632
▁cop	-11.0634
▁air	-11.0634
amata	-11.0636
ටි	-11.0638
yorum	-11.0638
ительно	-11.0639
جی	-11.064
θέ	-11.064
úc	-11.0642
▁toimi	-11.0642
75	-11.0647
ello	-11.0649
әсе	-11.0649
أك	-11.0652
пиш	-11.0663
▁Imp	-11.0665
یار	-11.0666
िस	-11.0668
्री	-11.067
قار	-11.0672
ೊಂದ	-11.0673
ension	-11.0676
गत	-11.0676
دید	-11.068
▁priv	-11.068
өх	-11.0684
tutu	-11.0685
эй	-11.0686
kazi	-11.069
æði	-11.0691
ಚಿ	-11.0694
▁instru	-11.07
ضر	-11.0703
порт	-11.0706
уди	-11.0709
ують	-11.0709
plan	-11.071
מקו	-11.0712
тық	-11.0713
meter	-11.0714
দিন	-11.0715
▁жет	-11.0719
▁ለማ	-11.0721
ူ	-11.0722
ド	-11.0722
ည်	-11.0722
ײ	-11.0722
ါ	-11.0722
ཚ	-11.0723
ඔ	-11.0723
방	-11.0723
Ú	-11.0723
ٌ	-11.0723
ٿ	-11.0723
ଯୋଗ	-11.0723
ഞ്ഞ	-11.0723
ሄ	-11.0723
ቋ	-11.0723
ẩ	-11.0723
ừ	-11.0723
ử	-11.0723
록	-11.0723
매	-11.0723
배	-11.0723
형	-11.0723
Í	-11.0723
ॅ	-11.0723
२	-11.0723
ყოფ	-11.0723
ៃ	-11.0723
월	-11.0723
ಬಹುದ	-11.0723
struktur	-11.0723
▁objekt	-11.0723
ụrụ	-11.0723
ឹង	-11.0723
▁pacient	-11.0723
័យ	-11.0723
päeva	-11.0723
တို့	-11.0723
だけ	-11.0724
რდ	-11.0724
▁accept	-11.0724
ರೀ	-11.0724
եռ	-11.0725
▁Leg	-11.0725
lanan	-11.0725
▁kontakt	-11.0725
▁prepara	-11.0727
pē	-11.0728
ହେ	-11.0729
ombe	-11.0729
เม	-11.0729
عن	-11.0731
่น	-11.0731
ක්ෂ	-11.0732
mble	-11.0736
ță	-11.0737
▁local	-11.0738
▁dic	-11.0739
▁під	-11.0739
▁Wy	-11.074
टे	-11.074
kiem	-11.0741
▁modern	-11.0743
arak	-11.0744
ishwa	-11.0744
ыць	-11.0746
muka	-11.0747
▁solu	-11.0749
ədə	-11.075
ējā	-11.075
▁kamp	-11.0754
hamba	-11.0754
▁elektroni	-11.0757
▁आप	-11.0759
OD	-11.0761
חש	-11.0763
ebilir	-11.0764
▁жол	-11.0765
paka	-11.0766
lógi	-11.0767
▁dou	-11.0771
▁ust	-11.0772
25	-11.0773
valt	-11.0773
คร	-11.0779
ény	-11.0781
▁kha	-11.0781
hake	-11.0782
ştir	-11.0782
pati	-11.0789
▁Mel	-11.079
წერ	-11.0791
▁המו	-11.0792
wv	-11.0793
▁май	-11.0798
cord	-11.0799
ално	-11.0802
odh	-11.0804
сол	-11.0807
парт	-11.0812
тельно	-11.0817
view	-11.0819
door	-11.0819
ભા	-11.082
▁Ле	-11.0823
▁kay	-11.0824
ımı	-11.0824
рован	-11.0826
لۇق	-11.0826
ତ୍ର	-11.0829
ół	-11.0829
ுட	-11.0831
▁cá	-11.0832
56	-11.0833
ья	-11.0836
ৰা	-11.0851
ляет	-11.0853
rett	-11.0861
نٹ	-11.0862
теп	-11.0864
chtig	-11.0865
تخ	-11.0866
muş	-11.0867
лды	-11.0873
▁нар	-11.0876
▁למ	-11.0878
komst	-11.0878
ંદ	-11.0879
▁הנ	-11.0883
ндай	-11.0883
ಗಿ	-11.0887
holo	-11.0888
য়ার	-11.0892
▁цел	-11.0892
ologia	-11.0894
▁باش	-11.0902
चल	-11.0903
drag	-11.0908
mēr	-11.0913
▁past	-11.0913
فق	-11.0915
σμα	-11.0916
slag	-11.0918
▁Emp	-11.092
δή	-11.0923
έχ	-11.0924
mynd	-11.0928
▁Fri	-11.0932
ಪು	-11.0939
افت	-11.0941
▁hap	-11.0943
ţ	-11.0943
TT	-11.0945
тур	-11.0948
מער	-11.0951
▁Sar	-11.0951
▁Produ	-11.0953
ུང	-11.0954
ங்கி	-11.0954
ାଏ	-11.0956
▁rest	-11.0959
лау	-11.0961
▁κατα	-11.0966
مەن	-11.0969
вој	-11.0974
▁σύ	-11.0982
дзя	-11.0986
වත්	-11.0987
eachta	-11.0988
▁vak	-11.0989
▁jou	-11.0989
پور	-11.0991
энд	-11.0992
sema	-11.0994
▁পে	-11.0994
▁Ст	-11.0995
pont	-11.0998
జీ	-11.1004
મા	-11.1007
vana	-11.1008
▁milj	-11.1008
32	-11.1014
нун	-11.1019
radh	-11.1022
▁lát	-11.1025
karan	-11.1027
ṣe	-11.1029
opis	-11.103
jiem	-11.1031
្ម	-11.1033
▁Up	-11.1033
▁Bun	-11.1036
ອງ	-11.1043
شد	-11.1045
▁qual	-11.1047
gona	-11.1048
graf	-11.1048
▁dara	-11.1048
və	-11.105
33	-11.1051
oria	-11.1052
▁viol	-11.1052
ւ	-11.1053
əyə	-11.1054
czne	-11.1054
mbra	-11.1054
ța	-11.1057
▁хий	-11.1058
ਣਾ	-11.1058
ნენ	-11.1059
▁natur	-11.1059
धा	-11.1059
▁इं	-11.106
ând	-11.1061
AG	-11.1063
▁मिल	-11.1064
▁قىلى	-11.1069
bẹ	-11.1072
యు	-11.1074
ില്ല	-11.1077
əş	-11.1078
ែង	-11.1079
੍ਹ	-11.1079
لاق	-11.1082
toria	-11.1083
▁అంద	-11.1085
▁dej	-11.1086
ങ്ക	-11.1087
تش	-11.1088
ště	-11.1092
yong	-11.1092
dach	-11.1096
▁kle	-11.1101
▁unu	-11.1102
öö	-11.1108
үүлэ	-11.1109
ਸ਼ਾ	-11.1111
ologie	-11.1112
పై	-11.1112
▁dobi	-11.1115
ття	-11.1119
▁ath	-11.112
оби	-11.1121
funa	-11.1122
្ដ	-11.1123
Β	-11.1131
sible	-11.1136
했	-11.1137
ķ	-11.1139
ಥ	-11.1139
▁ನೀಡ	-11.1139
シ	-11.1139
설	-11.1139
առաջ	-11.1139
ཡ	-11.1139
ླ	-11.1139
၂	-11.1139
ሃ	-11.1139
ጎ	-11.1139
២	-11.1139
▁ହୋଇ	-11.1139
감	-11.1139
목	-11.1139
받	-11.1139
점	-11.1139
▁kategori	-11.1139
ັງ	-11.114
पछि	-11.114
▁Universit	-11.114
्यात	-11.114
ັກ	-11.114
▁способ	-11.114
▁నిర్	-11.1141
முறை	-11.1141
פֿ	-11.1141
▁minut	-11.1142
تار	-11.1143
▁хэл	-11.1143
േക്ക	-11.1146
เด	-11.1146
▁అను	-11.1147
▁član	-11.1148
qin	-11.1148
▁labora	-11.1148
ችን	-11.1149
matik	-11.1152
داشت	-11.1155
FI	-11.1155
TER	-11.1159
արդ	-11.1159
▁Dé	-11.1159
صاب	-11.1163
ఫ్	-11.1167
▁Ки	-11.1168
පත්	-11.1168
βά	-11.117
▁Son	-11.117
▁podob	-11.117
ี่	-11.1173
▁uda	-11.1174
്ക	-11.1174
ëm	-11.1177
сөн	-11.1178
▁aso	-11.1179
mobil	-11.118
ခု	-11.1182
начал	-11.1183
دام	-11.1184
ប្រ	-11.1185
▁Post	-11.1187
слов	-11.119
ұр	-11.1191
sinin	-11.1191
▁Camp	-11.1192
▁coll	-11.1194
Κ	-11.1194
ίο	-11.1195
ាន់	-11.1196
▁material	-11.1197
▁Cap	-11.1198
વ્ય	-11.1198
▁සං	-11.12
òm	-11.1202
өм	-11.1203
▁gat	-11.1204
▁فو	-11.1205
ић	-11.1206
ाच्या	-11.1208
ವೇ	-11.1214
▁Ten	-11.1221
овы	-11.1221
▁minim	-11.1222
▁कम	-11.1223
דל	-11.1223
რძ	-11.1224
38	-11.1224
▁Met	-11.1224
▁popular	-11.1224
ança	-11.1228
▁virtu	-11.1228
سته	-11.1229
ذر	-11.1229
ීමට	-11.123
ხე	-11.1233
تھ	-11.1236
▁event	-11.1239
эж	-11.1239
κι	-11.124
poru	-11.1243
لق	-11.1244
የት	-11.1246
ವಾದ	-11.1247
ている	-11.1248
লোক	-11.1249
ğı	-11.1251
ափ	-11.1254
▁hier	-11.1256
өөр	-11.1257
ੱਕ	-11.1259
▁අව	-11.126
29	-11.1261
▁προσ	-11.1267
ाला	-11.1271
ૃ	-11.1272
▁propri	-11.1274
▁Ва	-11.1276
▁social	-11.1285
▁så	-11.1296
ടു	-11.1299
▁Пре	-11.13
বু	-11.1303
يان	-11.1305
▁мө	-11.1307
▁pli	-11.1315
▁có	-11.1317
ద్ధ	-11.1317
सके	-11.132
ધાર	-11.1321
gesch	-11.1325
larını	-11.1327
ಂಬ	-11.1328
▁рад	-11.133
ەل	-11.1332
पाल	-11.1333
మే	-11.1334
DR	-11.1335
tasun	-11.1335
ாத	-11.1335
▁επ	-11.1335
mvu	-11.1342
BS	-11.1342
داری	-11.1342
فض	-11.1345
tikan	-11.1347
95	-11.1347
кә	-11.1348
ným	-11.1349
owanie	-11.135
מט	-11.135
borg	-11.135
▁pama	-11.1351
▁Kin	-11.1353
rage	-11.1353
press	-11.1354
ביל	-11.1354
łow	-11.1356
जर	-11.1357
▁Ram	-11.1358
نظر	-11.1361
handel	-11.1361
▁qil	-11.1364
اري	-11.1365
मत	-11.1366
рийн	-11.137
▁гол	-11.137
перед	-11.1373
การ	-11.1373
sió	-11.1376
▁gab	-11.1387
тон	-11.1388
▁arri	-11.1392
פט	-11.1396
ਜੀ	-11.1397
▁معا	-11.1399
чі	-11.1399
czn	-11.1403
uoti	-11.1405
фі	-11.1406
മി	-11.1406
পি	-11.1408
▁Ara	-11.141
дем	-11.1414
ို	-11.1419
َلَ	-11.1422
▁daž	-11.1426
ტურ	-11.1426
▁Hen	-11.1429
▁Kra	-11.143
òr	-11.143
лген	-11.1431
ອນ	-11.1431
▁motor	-11.1432
ന്നു	-11.1435
езд	-11.1435
פרי	-11.1436
65	-11.1438
▁skil	-11.1439
කාර	-11.1442
44	-11.1446
▁име	-11.1448
бро	-11.145
ličn	-11.1451
انس	-11.1459
▁Ис	-11.1459
▁Stra	-11.1461
htë	-11.1467
מג	-11.1468
ünk	-11.147
▁මෙ	-11.1473
▁Ин	-11.1473
▁Kir	-11.1474
ύν	-11.1474
ുക	-11.1477
ıyor	-11.1481
ņ	-11.1482
▁utiliz	-11.1486
үк	-11.1487
▁vasta	-11.1492
▁يو	-11.1495
▁ئاي	-11.1498
פע	-11.1499
▁Mill	-11.15
▁princip	-11.1501
τών	-11.1501
pena	-11.1503
▁investi	-11.1504
ĉi	-11.1508
του	-11.1511
▁yak	-11.1511
დო	-11.1512
ől	-11.1513
GE	-11.1513
ডি	-11.152
хүү	-11.1521
▁Ul	-11.1521
▁porta	-11.1523
SK	-11.1523
PI	-11.1523
▁integr	-11.1524
nız	-11.1525
▁igra	-11.1525
сли	-11.1525
teľ	-11.1526
সে	-11.1531
арга	-11.1532
കര	-11.1535
ần	-11.1535
َيْ	-11.1536
ўна	-11.1537
czni	-11.1539
खे	-11.154
қан	-11.154
▁dav	-11.1541
PD	-11.1542
чил	-11.1546
żeni	-11.1549
▁ear	-11.1555
ნე	-11.1556
ਟੀ	-11.1557
γά	-11.1562
▁Bon	-11.1563
▁bran	-11.1563
rakst	-11.1569
ttle	-11.1572
нення	-11.1573
ถ	-11.1573
ប់	-11.1573
▁uporab	-11.1574
ဝ	-11.1574
ở	-11.1574
ঙ্গ	-11.1574
чан	-11.1574
역	-11.1574
わ	-11.1574
̀	-11.1574
१	-11.1574
४	-11.1574
ผ	-11.1574
じ	-11.1574
ジ	-11.1574
ム	-11.1574
디	-11.1574
았	-11.1574
예	-11.1574
처	-11.1574
항	-11.1574
Î	-11.1574
Γ	-11.1574
ဟ	-11.1574
ီး	-11.1574
▁सर्व	-11.1575
ప్పుడ	-11.1575
ස්ථ	-11.1575
▁созда	-11.1575
ว่า	-11.1576
▁otvor	-11.1576
կա	-11.158
веде	-11.1582
▁yol	-11.1582
▁কো	-11.1582
mista	-11.1582
▁zvaka	-11.1584
▁život	-11.1585
▁അവ	-11.1586
ංග	-11.1588
вата	-11.159
кин	-11.1591
ላል	-11.1593
დრო	-11.1593
гыз	-11.1596
▁Auf	-11.1599
▁mash	-11.1601
ල්ල	-11.1601
▁Pin	-11.1604
▁typ	-11.1605
ložen	-11.1606
ājum	-11.1606
▁nastav	-11.1607
በር	-11.1608
дуу	-11.1609
مْ	-11.1609
უს	-11.1611
слав	-11.1618
ksen	-11.162
▁Пер	-11.1621
▁Ran	-11.1622
▁кай	-11.1623
▁numer	-11.1624
▁internet	-11.1624
▁სი	-11.1625
ร์	-11.1629
ție	-11.1629
ocht	-11.163
ọ́	-11.1631
și	-11.1631
ಿಸುವ	-11.1631
36	-11.1632
ĝis	-11.1633
▁pala	-11.1634
▁перш	-11.1636
фер	-11.1638
64	-11.164
prowad	-11.1644
▁күн	-11.165
nggal	-11.1651
▁creat	-11.1652
ജ	-11.1653
ști	-11.1653
▁народ	-11.1654
cade	-11.1655
85	-11.1658
drejt	-11.1662
▁Tab	-11.1663
▁தொ	-11.1668
цэ	-11.1669
NC	-11.167
føre	-11.1672
▁Из	-11.1672
ାହା	-11.1672
াস	-11.1674
▁instala	-11.1675
עצ	-11.168
▁qua	-11.168
пада	-11.1683
recht	-11.1683
▁konkr	-11.1684
तु	-11.1685
corre	-11.1688
লো	-11.1688
▁При	-11.1691
▁special	-11.1692
koresh	-11.1694
▁privat	-11.1695
49	-11.1698
జి	-11.1699
ద్ద	-11.1699
ับ	-11.1701
98	-11.1701
бек	-11.1702
omis	-11.1702
▁చేస	-11.1703
ରୋ	-11.1705
77	-11.1705
кур	-11.1706
لدى	-11.1711
bantu	-11.1711
▁постав	-11.1713
▁add	-11.1713
ует	-11.1718
suku	-11.172
τεί	-11.172
▁دست	-11.1721
ਭਾ	-11.1722
▁төр	-11.1724
▁laik	-11.1726
álne	-11.1727
▁cab	-11.1729
téri	-11.1729
DS	-11.173
ावे	-11.1734
γμα	-11.1736
્રી	-11.1741
පි	-11.1743
წი	-11.1743
ცა	-11.1743
μου	-11.1746
άσει	-11.1746
ović	-11.175
タ	-11.175
רא	-11.1751
▁цен	-11.1755
තිය	-11.176
phone	-11.1762
ème	-11.1763
ნო	-11.1765
лив	-11.1772
vljen	-11.1774
mål	-11.1774
llow	-11.1777
īga	-11.1777
▁pravi	-11.1782
▁prakti	-11.1783
शन	-11.1783
शु	-11.1786
буд	-11.1786
្ប	-11.1791
ପାର	-11.1792
▁financi	-11.1792
▁sky	-11.1792
lette	-11.1794
צב	-11.1796
▁zw	-11.1797
лэг	-11.1801
لىنى	-11.1802
ਕੀ	-11.1802
៉	-11.1803
▁شو	-11.1805
ρία	-11.1807
çə	-11.1812
▁Out	-11.1812
▁Ef	-11.1814
ਕੇ	-11.1816
▁asia	-11.1817
ُو	-11.1817
ható	-11.1821
ტის	-11.1822
હી	-11.1823
vė	-11.1824
тыр	-11.1826
ற்று	-11.1827
owane	-11.1829
OC	-11.183
ण्यास	-11.1838
▁aki	-11.1841
RM	-11.1842
rapi	-11.1843
णा	-11.1844
▁realiza	-11.1845
bund	-11.185
ālā	-11.1852
っ	-11.1858
wezi	-11.1859
یع	-11.1862
HI	-11.1864
sinde	-11.1865
মন	-11.1867
ragen	-11.1871
▁kry	-11.1873
থা	-11.1875
нік	-11.1876
اصل	-11.1876
nggu	-11.1876
▁last	-11.1881
▁فی	-11.1881
קור	-11.1882
▁Van	-11.1883
nout	-11.189
▁nime	-11.1891
▁hə	-11.1894
பார்	-11.1894
ांनी	-11.1894
▁vál	-11.1896
ਤੇ	-11.1899
idagi	-11.1899
மே	-11.1899
▁сме	-11.19
▁пр	-11.1902
▁Ker	-11.1907
▁leid	-11.1908
▁Mul	-11.1909
زار	-11.1909
▁vē	-11.191
▁veg	-11.1912
्रे	-11.1912
үш	-11.1913
▁trou	-11.1914
গে	-11.1917
ెన్	-11.1921
rick	-11.1925
▁hé	-11.1927
▁Kun	-11.193
ന്നത്	-11.1932
тори	-11.1933
51	-11.1935
رش	-11.1936
OU	-11.1938
▁інш	-11.1941
වීම	-11.1943
ತಾ	-11.1943
34	-11.1944
િન	-11.1945
guru	-11.1946
ოლ	-11.1947
ktig	-11.1953
पो	-11.1956
DO	-11.1957
ற்கு	-11.1958
времен	-11.1959
tsy	-11.1959
▁زی	-11.1964
▁Web	-11.1965
дік	-11.1967
ातील	-11.1971
וג	-11.1971
▁gran	-11.1972
ੂਰ	-11.1974
ळा	-11.1977
ቦ	-11.1979
யே	-11.1979
ện	-11.1979
well	-11.1985
▁Tha	-11.1987
ске	-11.1989
▁svoj	-11.199
fond	-11.1991
ხელ	-11.1996
ራት	-11.1996
ச்	-11.1997
ście	-11.1999
aĵo	-11.2002
▁अप	-11.2013
රණය	-11.2014
пал	-11.2015
زر	-11.2018
թե	-11.2018
37	-11.2021
ىدىغان	-11.2022
બી	-11.2022
▁Hin	-11.2023
ünde	-11.2025
လို	-11.2025
ြ	-11.2026
ຽ	-11.2027
ථ	-11.2028
입	-11.2028
よう	-11.2029
ဖ	-11.2029
품	-11.2029
ஒ	-11.2029
Վ	-11.2029
ऑ	-11.2029
राष्ट्र	-11.2029
ỉ	-11.2029
ũ	-11.2029
३	-11.2029
६	-11.2029
७	-11.2029
ৎ	-11.2029
ଘ	-11.2029
ຖ	-11.2029
ቹ	-11.2029
ዮ	-11.2029
១	-11.2029
ễ	-11.2029
カ	-11.2029
フ	-11.2029
버	-11.2029
변	-11.2029
심	-11.2029
출	-11.2029
통	-11.2029
파	-11.2029
większ	-11.2029
▁район	-11.2029
▁document	-11.2029
▁contribu	-11.2029
▁strategi	-11.2029
कडे	-11.2029
ခဲ့	-11.2029
▁ನಡೆ	-11.2029
ισμό	-11.2029
▁அதிக	-11.203
မြ	-11.203
하게	-11.2031
ூர்	-11.2033
▁Itali	-11.2033
ոց	-11.2033
tott	-11.2035
▁profil	-11.2035
vyk	-11.2037
▁jir	-11.2039
ድር	-11.2041
▁zin	-11.2041
ûr	-11.2042
ուտ	-11.2042
▁zgod	-11.2043
gabe	-11.2044
▁pensa	-11.2045
ænd	-11.2046
▁student	-11.2047
మ్మ	-11.2048
igkeit	-11.2048
iladi	-11.2049
కూ	-11.205
ból	-11.2051
гөн	-11.2051
▁segui	-11.2053
IE	-11.2059
phezu	-11.206
পৰ	-11.206
▁sø	-11.206
ونه	-11.2065
крыт	-11.2067
ક્ત	-11.207
▁peny	-11.2073
λικ	-11.2075
иза	-11.2076
▁memba	-11.2082
▁stud	-11.2082
▁кез	-11.2082
▁अन	-11.2082
▁çık	-11.2084
شان	-11.2085
ично	-11.2087
ství	-11.2087
าน	-11.2087
િટ	-11.2089
▁Tom	-11.2089
reach	-11.2092
▁Regi	-11.2092
▁participa	-11.2093
▁intens	-11.2096
▁sağ	-11.2101
▁actual	-11.2101
empat	-11.2102
▁suure	-11.2102
ावर	-11.2103
በት	-11.2104
fundi	-11.2105
system	-11.2105
лон	-11.2106
▁Sand	-11.2107
сел	-11.2107
▁Pod	-11.2107
31	-11.2108
لح	-11.2109
ថា	-11.2117
▁stá	-11.2118
ática	-11.2119
్యం	-11.2122
▁utiliza	-11.2123
nuti	-11.2123
šal	-11.2126
quin	-11.2126
עבר	-11.2127
board	-11.2127
ৰে	-11.2128
たい	-11.2131
▁regula	-11.2132
ভি	-11.2133
komen	-11.2138
ŭ	-11.2138
cture	-11.2138
ుతుంద	-11.2139
ಬಿ	-11.2143
Ф	-11.2144
▁result	-11.2146
τηση	-11.2146
▁autori	-11.2146
UL	-11.215
tzung	-11.2151
І	-11.2153
коп	-11.2154
room	-11.2154
ڑھ	-11.2156
אַר	-11.2158
cast	-11.2158
məsi	-11.2159
86	-11.2162
▁हु	-11.2164
▁βρ	-11.2167
▁normal	-11.2169
druk	-11.217
ตร	-11.2174
ibus	-11.2175
▁trá	-11.2175
▁conten	-11.2177
96	-11.2182
▁rég	-11.2186
stof	-11.2188
भाग	-11.219
fær	-11.219
▁profession	-11.2191
യൂ	-11.2194
▁रह	-11.2197
न्छ	-11.2198
▁Arm	-11.22
RC	-11.2203
Τ	-11.2204
▁pozna	-11.2205
▁გადა	-11.2205
▁Vel	-11.221
ಸುತ್ತ	-11.2213
śni	-11.2217
vå	-11.2219
جب	-11.2221
znaj	-11.2222
ളി	-11.2223
reiz	-11.2224
▁abi	-11.2225
68	-11.223
унда	-11.2231
سلام	-11.2232
▁kapit	-11.2233
wasan	-11.2233
ടുത്ത	-11.2233
კვ	-11.2235
loži	-11.2235
дог	-11.2235
66	-11.2237
करण	-11.2238
ษ	-11.2238
polis	-11.224
ော်	-11.2242
UM	-11.2243
ଆ	-11.2246
տար	-11.2246
ண்டு	-11.2248
ුණු	-11.225
ಸರ	-11.2253
shwa	-11.2255
сет	-11.2257
તિ	-11.2259
▁bid	-11.2262
endur	-11.2266
▁എന്ന	-11.2267
מני	-11.2267
ველ	-11.2269
▁eme	-11.2271
tävä	-11.2271
ەي	-11.2278
கால	-11.2278
ਟਰ	-11.2278
point	-11.228
ลา	-11.228
ାନ	-11.2283
▁jur	-11.2283
▁nyo	-11.2285
ranga	-11.2286
ிட	-11.2286
▁usp	-11.2295
EG	-11.2296
фт	-11.2297
acak	-11.2298
▁fili	-11.2299
▁wha	-11.2301
wego	-11.231
IG	-11.2311
сек	-11.2312
▁Cent	-11.2312
נס	-11.2313
▁realiz	-11.2316
కం	-11.2316
▁Fra	-11.232
ದ್ದು	-11.2321
वाद	-11.2324
▁Alb	-11.2325
ични	-11.2326
ेस	-11.2327
▁сана	-11.2333
▁қара	-11.2337
צרי	-11.2338
బడి	-11.2339
ccion	-11.2341
یشن	-11.2343
արգ	-11.2348
▁зах	-11.2348
liği	-11.2349
ತ್ಯ	-11.2352
▁Brit	-11.2354
صور	-11.2356
élé	-11.2356
ਰੋ	-11.2358
ંચ	-11.2359
CD	-11.2361
lė	-11.2364
▁вос	-11.2365
▁descri	-11.2373
ropa	-11.2375
ਵਾਰ	-11.2375
шли	-11.2378
▁yapı	-11.2381
ದಿನ	-11.2383
्ज	-11.2384
▁الز	-11.2385
handle	-11.2386
σί	-11.2387
efter	-11.2389
lief	-11.2389
տեղ	-11.2389
માન	-11.2391
ள்ள	-11.2394
▁sell	-11.2394
▁scen	-11.2395
ёс	-11.2396
▁Bri	-11.2396
chung	-11.2397
časn	-11.24
भि	-11.2403
ۇن	-11.2409
adka	-11.2412
▁Hand	-11.2414
ਗੀ	-11.2415
बार	-11.2417
▁суу	-11.2418
gelijk	-11.2422
▁как	-11.2422
మం	-11.2423
▁merc	-11.2423
зав	-11.2425
SM	-11.2427
▁шир	-11.2427
ିଆ	-11.2428
лән	-11.243
рах	-11.243
▁συμ	-11.2431
கம்	-11.2432
्रो	-11.2432
ۇق	-11.2436
▁tart	-11.2438
▁الأس	-11.244
говори	-11.2443
▁Sol	-11.2446
շտ	-11.2448
▁свет	-11.2448
▁Umu	-11.2458
مند	-11.2462
بین	-11.2466
▁class	-11.2468
TM	-11.247
▁kraj	-11.2475
SU	-11.2475
▁сло	-11.2479
ළු	-11.2481
իվ	-11.2486
▁amo	-11.2489
▁Med	-11.2489
pik	-11.249
endre	-11.2495
ျ	-11.2495
53	-11.2497
▁respond	-11.2498
▁marka	-11.2501
▁வெ	-11.2503
▁mund	-11.2503
rët	-11.2503
ଗ୍	-11.2504
sätt	-11.2504
۰	-11.2505
타	-11.2505
ኤ	-11.2505
Ю	-11.2505
Բ	-11.2505
ည့်	-11.2505
ሴ	-11.2505
ዴ	-11.2505
ឈ	-11.2505
ភាព	-11.2505
ỗ	-11.2505
▁материал	-11.2505
▁দেখ	-11.2505
ろ	-11.2505
ウ	-11.2505
コ	-11.2505
격	-11.2505
때	-11.2505
료	-11.2505
메	-11.2505
번	-11.2505
직	-11.2505
현	-11.2505
£	-11.2505
۲	-11.2505
ಘ	-11.2505
キ	-11.2505
ブ	-11.2505
추	-11.2505
▁проблем	-11.2505
ಣ್ಣ	-11.2505
▁கூற	-11.2505
▁ఉన్న	-11.2505
▁систем	-11.2505
▁ଉପ	-11.2505
▁успе	-11.2505
▁konstru	-11.2505
తున్న	-11.2505
ស់	-11.2506
▁educa	-11.2506
່ງ	-11.2506
ရေး	-11.2506
▁ಕೊ	-11.2506
ંક	-11.2507
രീ	-11.2508
یہ	-11.2508
ِّ	-11.2508
▁සැ	-11.2508
▁transport	-11.2509
escu	-11.2509
▁commun	-11.251
▁über	-11.2511
stilling	-11.2511
Éä	-11.2511
ബ്	-11.2511
ակց	-11.2511
лығы	-11.2513
መለ	-11.2513
جمع	-11.2514
ਿਲ	-11.2515
hrad	-11.2515
▁fantas	-11.2518
διά	-11.2519
لال	-11.252
ząd	-11.252
▁consult	-11.2521
▁perform	-11.2523
መር	-11.2526
inė	-11.2528
▁कार्य	-11.2529
▁кыз	-11.2531
▁chiq	-11.2532
իս	-11.2533
արան	-11.2535
▁түр	-11.2535
пон	-11.2538
piri	-11.2538
eath	-11.2541
▁investiga	-11.2545
bong	-11.2545
▁პირ	-11.2547
sabab	-11.255
▁সু	-11.2552
र्थ	-11.2553
բան	-11.2557
▁cré	-11.2558
iaeth	-11.2558
ੰਗ	-11.2559
রী	-11.2559
مين	-11.256
lind	-11.2561
पक्ष	-11.2562
▁ಅಂ	-11.2563
▁கோ	-11.2566
mèt	-11.2567
ುವುದ	-11.2567
نز	-11.2568
ሎች	-11.257
δα	-11.257
មាន	-11.2573
▁klub	-11.2574
لگەن	-11.2574
િવ	-11.2574
што	-11.2583
▁мест	-11.2583
ლების	-11.2586
ගත	-11.2587
PL	-11.2588
CK	-11.259
▁сум	-11.2598
ნახ	-11.2599
▁સુ	-11.26
qond	-11.26
▁lø	-11.2601
פני	-11.2603
ujem	-11.2609
▁rê	-11.2609
зат	-11.2612
زل	-11.2613
reven	-11.2614
▁එක	-11.2615
nyama	-11.2616
කට	-11.2618
jọ	-11.2626
áž	-11.2629
ырга	-11.263
τικέ	-11.2632
න්ද	-11.2632
vyo	-11.2635
क्स	-11.2637
альна	-11.2639
pū	-11.2639
▁آن	-11.264
schap	-11.2642
ਤਰ	-11.2643
дете	-11.2644
skrif	-11.2646
̣	-11.2647
ndawo	-11.2647
▁vent	-11.2648
▁ostat	-11.2649
יפ	-11.2651
pake	-11.2652
▁Ար	-11.2653
атель	-11.2656
▁algu	-11.2657
телно	-11.2658
льно	-11.2658
šení	-11.2661
көн	-11.2664
инин	-11.2664
ոշ	-11.2667
мена	-11.2667
acj	-11.2668
▁tash	-11.267
شخص	-11.2671
Х	-11.2672
▁agent	-11.2673
చ్	-11.2674
асында	-11.2674
▁sku	-11.2676
ář	-11.2678
▁Kap	-11.268
იდან	-11.268
ткан	-11.2681
misel	-11.2685
▁பொ	-11.2686
▁hlav	-11.269
ანი	-11.269
אַל	-11.2697
wenza	-11.2698
ിന്റ	-11.2698
▁Так	-11.2702
বাস	-11.2702
ddol	-11.2704
dott	-11.2706
ี้	-11.2707
পুর	-11.2713
▁நீ	-11.2715
▁Ima	-11.2717
nast	-11.2718
მდე	-11.2721
ന്റ	-11.2724
πέ	-11.2725
97	-11.2725
▁auf	-11.2726
▁cú	-11.2727
▁Ваш	-11.2727
יא	-11.2729
▁ಆಗ	-11.2734
न्द	-11.2735
क्क	-11.274
▁чо	-11.2746
46	-11.2746
זמ	-11.2746
▁кап	-11.2748
TP	-11.2749
bæ	-11.2753
▁Uku	-11.2756
▁besch	-11.2757
▁அத	-11.2757
▁Cab	-11.2759
лять	-11.2761
guard	-11.2762
уге	-11.2762
ήματ	-11.2763
ិន	-11.2764
עול	-11.2766
▁aktivit	-11.2767
54	-11.2773
වන	-11.2775
ங்கு	-11.2776
ಂಗ	-11.2777
▁convi	-11.2777
▁saf	-11.2778
▁mys	-11.2781
▁bole	-11.2781
▁меди	-11.2781
धन	-11.2783
DM	-11.2784
▁considera	-11.2785
сіз	-11.2786
ылды	-11.2787
ුම්	-11.2788
σο	-11.2789
ರುತ್ತ	-11.2791
hinga	-11.2791
తీ	-11.2796
ែក	-11.2796
مام	-11.2797
նդ	-11.2798
går	-11.2802
▁saat	-11.2802
print	-11.2803
▁הד	-11.2806
osť	-11.2812
ёр	-11.2812
zná	-11.2813
ták	-11.2815
ਾਹ	-11.2817
فار	-11.2822
▁divers	-11.2824
▁auk	-11.2824
▁സ്വ	-11.2826
ხოვ	-11.2831
▁garanti	-11.2833
ોટ	-11.2833
ஷ	-11.2837
ರುವ	-11.284
ijk	-11.2841
▁रि	-11.2843
▁kuri	-11.2843
lös	-11.2845
▁pagka	-11.2846
▁बस	-11.2846
▁confi	-11.2846
▁turist	-11.285
đe	-11.285
كس	-11.285
katan	-11.2851
zego	-11.2852
անկ	-11.2853
που	-11.2854
lsen	-11.2856
ബി	-11.2859
ধান	-11.2862
▁অব	-11.2866
▁hän	-11.2869
▁बना	-11.287
▁बु	-11.287
▁установ	-11.2874
ңа	-11.2877
ënë	-11.2878
ಜಿ	-11.2878
ජන	-11.2884
chter	-11.2885
74	-11.2887
পু	-11.2889
llah	-11.2891
94	-11.2892
సె	-11.2892
91	-11.2894
patu	-11.2896
▁игр	-11.2899
▁impres	-11.2902
ások	-11.2907
ىق	-11.2913
ంటి	-11.2914
фор	-11.2914
shop	-11.2915
ବାର	-11.2916
ufen	-11.2916
▁बन	-11.2917
fran	-11.292
nzwe	-11.2921
казал	-11.2924
cü	-11.2925
ÇÑ	-11.2925
▁жаса	-11.2926
▁dub	-11.2927
ట్లు	-11.2928
народн	-11.2933
52	-11.2937
િલ	-11.2938
тип	-11.2942
▁sort	-11.2949
▁kasu	-11.295
վար	-11.2951
oloji	-11.2954
NE	-11.2955
ratra	-11.2957
▁faha	-11.2958
▁direkt	-11.296
реб	-11.296
בור	-11.2964
ведени	-11.2965
ాం	-11.2966
▁prost	-11.2966
yerek	-11.2969
76	-11.297
lės	-11.2972
સી	-11.2972
ગા	-11.2975
قدر	-11.2977
య్య	-11.2978
ਐ	-11.2979
NO	-11.298
зь	-11.298
ាង	-11.2981
▁svo	-11.2982
્ચ	-11.2984
ىغا	-11.2989
හු	-11.2991
pression	-11.2992
ండ	-11.2992
تۇر	-11.2994
▁sci	-11.2997
93	-11.2998
ків	-11.2999
SR	-11.3
▁مست	-11.3001
ਨੇ	-11.3001
ദേശ	-11.3002
र्ट	-11.3002
ליי	-11.3002
AF	-11.3002
▁Esta	-11.3002
hiya	-11.3003
ို့	-11.3003
్లో	-11.3004
ढ़	-11.3004
ഖ	-11.3004
교	-11.3005
결	-11.3005
ĩ	-11.3005
ళ్ళ	-11.3005
ኩ	-11.3005
২	-11.3005
ଙ୍ଗ	-11.3005
ຢ	-11.3005
ཅ	-11.3005
၁	-11.3005
ቴ	-11.3005
ፃ	-11.3005
▁používa	-11.3005
▁необходим	-11.3005
▁финанс	-11.3005
▁অনু	-11.3005
マ	-11.3005
ャ	-11.3005
날	-11.3005
름	-11.3005
불	-11.3005
브	-11.3005
션	-11.3005
준	-11.3005
카	-11.3005
환	-11.3005
▁செய்ய	-11.3005
γράφ	-11.3005
ույն	-11.3005
▁introdu	-11.3005
▁distribu	-11.3005
▁պատ	-11.3005
ườn	-11.3005
დგენ	-11.3005
▁готов	-11.3005
ット	-11.3005
ષ્ટ	-11.3005
ឹក	-11.3006
하여	-11.3006
▁confirm	-11.3006
▁норм	-11.3007
▁πρό	-11.3007
▁transform	-11.3007
します	-11.3007
middel	-11.3007
MC	-11.3008
▁প্রতি	-11.3008
നെ	-11.3008
isip	-11.3008
▁പോ	-11.3008
ировать	-11.3009
ଦା	-11.3009
ÑÖÑ	-11.301
▁držav	-11.301
ಟರ್	-11.301
▁склад	-11.301
धार	-11.3011
رون	-11.3012
र्ड	-11.3012
▁പു	-11.3012
పీ	-11.3013
▁consum	-11.3013
өй	-11.3013
czę	-11.3013
▁cyn	-11.3014
▁отдел	-11.3016
▁fó	-11.3017
▁innova	-11.3017
▁ਦਿ	-11.3019
ទី	-11.302
▁նախ	-11.3021
▁reklam	-11.3022
њу	-11.3022
שות	-11.3023
▁жаз	-11.3025
▁முடி	-11.3025
піс	-11.3025
δό	-11.3029
ایا	-11.303
ендә	-11.303
âld	-11.3031
▁demand	-11.3032
راق	-11.3033
position	-11.3034
ಣೆ	-11.3036
▁আস	-11.3037
ুক	-11.3038
ბო	-11.3039
▁Dur	-11.3043
▁amba	-11.3045
्दै	-11.3047
üü	-11.3048
▁plast	-11.3049
57	-11.3054
▁complet	-11.3056
ויות	-11.3057
▁Ар	-11.3059
▁Acc	-11.3059
▁iba	-11.3065
ज़	-11.3066
▁ilg	-11.3067
▁Tam	-11.3068
▁жү	-11.3069
▁Pem	-11.3071
▁stol	-11.3071
CT	-11.3071
box	-11.3073
ரிய	-11.3073
▁turn	-11.3078
58	-11.3078
قيق	-11.3082
VA	-11.3082
▁trata	-11.3083
נח	-11.3086
▁בה	-11.3086
მენტ	-11.3086
▁við	-11.3087
▁Бу	-11.3088
83	-11.309
▁комп	-11.3092
లేద	-11.3095
▁praw	-11.3097
▁само	-11.3098
▁трет	-11.3099
hung	-11.3101
arbeit	-11.3103
čiau	-11.3104
71	-11.3105
़	-11.3111
تال	-11.3115
▁igb	-11.3117
▁игра	-11.3121
штин	-11.3123
▁là	-11.3123
தம்	-11.3125
держа	-11.313
▁социал	-11.3131
word	-11.3132
▁એક	-11.3133
лаш	-11.3136
▁подоб	-11.3141
ക്കുക	-11.3144
61	-11.3146
պահ	-11.3149
న్స్	-11.3151
ರೂ	-11.3152
חלק	-11.3154
راض	-11.3155
स्ता	-11.3158
▁fotografi	-11.316
IK	-11.316
ਗਰ	-11.3162
ndelse	-11.3163
ضع	-11.3163
ங்களை	-11.3169
ತ್ರ	-11.3175
ಮ್	-11.3176
ələ	-11.318
στή	-11.3182
ଣା	-11.3182
▁ਜਿ	-11.3183
ілік	-11.3183
קבל	-11.3185
ացի	-11.3185
ಡು	-11.3185
alaman	-11.3188
ོག	-11.3192
more	-11.3193
▁nts	-11.3194
▁සිට	-11.3194
TU	-11.3195
▁tekst	-11.3203
ppi	-11.3203
ಮ್ಮ	-11.3205
92	-11.3205
هُ	-11.3205
حب	-11.3208
пуск	-11.3209
▁út	-11.3209
elela	-11.3215
sicht	-11.3215
štv	-11.3217
▁comh	-11.3218
hled	-11.3219
ҷо	-11.322
▁entra	-11.3221
▁दो	-11.3221
hora	-11.3222
ழ்	-11.3223
▁eleg	-11.3226
тър	-11.3227
ших	-11.3227
តិ	-11.3228
eanna	-11.3231
CR	-11.3232
ნება	-11.3232
79	-11.3232
μία	-11.3233
▁Komp	-11.3234
אָר	-11.3234
орон	-11.3236
വർ	-11.3237
્વ	-11.3238
ція	-11.3241
στεί	-11.3241
outh	-11.3242
ਜਾ	-11.3246
ាក	-11.3247
یون	-11.3249
жээ	-11.3249
▁komun	-11.3251
צור	-11.3253
RP	-11.3255
CL	-11.3255
від	-11.3256
78	-11.3256
Ü	-11.3258
39	-11.3258
tır	-11.3258
▁vide	-11.326
ائم	-11.3264
antoj	-11.3266
zorg	-11.327
াহ	-11.327
ولي	-11.3271
פש	-11.3272
ພ	-11.3274
PM	-11.3277
үүн	-11.3278
டம்	-11.3279
ırı	-11.328
ტე	-11.3282
IF	-11.3282
ಂದು	-11.3285
47	-11.3285
▁સ્વ	-11.3285
ρου	-11.3285
▁काम	-11.3286
دين	-11.3286
KA	-11.3289
89	-11.329
67	-11.329
yamba	-11.3291
▁metal	-11.3293
تك	-11.3299
▁Mit	-11.3302
व्ह	-11.3305
ческо	-11.3307
▁Lib	-11.3308
BI	-11.3309
kriv	-11.3311
vî	-11.3312
യോ	-11.3315
čenj	-11.3315
ىكى	-11.3319
▁Pun	-11.3319
جار	-11.3323
कल	-11.3328
▁situ	-11.333
યા	-11.333
▁Bol	-11.3331
čné	-11.3332
▁මා	-11.3337
الت	-11.3341
ajā	-11.3343
87	-11.3344
وند	-11.3345
чак	-11.3345
gadh	-11.3347
скі	-11.3351
▁Nga	-11.3352
▁spec	-11.3354
раў	-11.3361
▁उत्	-11.3368
▁nech	-11.337
DP	-11.3371
▁tour	-11.3371
▁Temp	-11.3371
▁Жа	-11.3374
▁fest	-11.3375
öh	-11.3377
▁reik	-11.3377
▁Shu	-11.3377
γή	-11.3377
▁hund	-11.3379
▁domin	-11.3384
ప్ప	-11.3386
ılması	-11.3386
▁mw	-11.3388
ÉÒ	-11.3392
ован	-11.3392
اؤ	-11.3395
ழி	-11.3395
GO	-11.3396
▁آل	-11.34
ੰਡ	-11.3402
نې	-11.3409
कृत	-11.3409
ড়ি	-11.3411
▁politic	-11.3411
▁otr	-11.3412
fix	-11.3415
▁gau	-11.3416
▁там	-11.3425
embre	-11.3425
учы	-11.3429
ήθηκ	-11.343
▁saj	-11.3432
ۋە	-11.3439
চার	-11.3441
सार	-11.3442
ária	-11.3443
ענ	-11.3444
ப்பி	-11.3445
andla	-11.3447
лари	-11.3448
▁base	-11.3448
nyika	-11.3448
▁кет	-11.3448
জ্	-11.3449
▁Mir	-11.3449
izado	-11.3449
ಕ್ತ	-11.345
▁लगा	-11.3452
▁هو	-11.3453
દેશ	-11.3454
▁valor	-11.3455
▁Form	-11.3456
ରଣ	-11.3457
▁teng	-11.3458
ედ	-11.346
▁Ха	-11.3461
ayaan	-11.3465
רק	-11.3469
ndum	-11.3472
▁Mik	-11.3473
owie	-11.3474
िट	-11.3474
▁બે	-11.3478
ुल	-11.3484
▁qab	-11.3485
නවා	-11.3486
layan	-11.3489
گه	-11.3494
500	-11.3495
сына	-11.3498
ृत	-11.35
▁identifi	-11.35
Ի	-11.3501
זע	-11.3501
▁Tele	-11.3503
лап	-11.3506
▁nema	-11.3508
lagen	-11.3511
লাই	-11.3512
دول	-11.3513
▁Europ	-11.3513
ovani	-11.3514
thath	-11.3516
قام	-11.3518
شف	-11.3521
layı	-11.3523
ttävä	-11.3526
VE	-11.3528
ใ	-11.3528
そ	-11.3529
တွင်	-11.353
▁daw	-11.353
학	-11.3531
ཞ	-11.3531
임	-11.3531
ဖြ	-11.3531
ឺ	-11.3531
ország	-11.3531
σκευ	-11.3531
Դ	-11.3531
ـ	-11.3531
۱	-11.3531
ຜ	-11.3531
ཀ	-11.3531
ཤ	-11.3531
ဂ	-11.3531
လည်း	-11.3531
ኘ	-11.3531
ឆ	-11.3531
▁популяр	-11.3531
▁холбо	-11.3531
▁म्हण	-11.3531
ゃ	-11.3531
セ	-11.3531
달	-11.3531
포	-11.3531
플	-11.3531
ึ	-11.3531
ኒ	-11.3531
▁здрав	-11.3531
▁ဒါ	-11.3531
▁წარმო	-11.3531
약	-11.3531
▁manifest	-11.3531
▁сөз	-11.3531
▁སྐ	-11.3531
ຫຼ	-11.3531
ყენებ	-11.3531
ण्ड	-11.3531
▁રાખ	-11.3531
ಕೊಂಡ	-11.3531
ック	-11.3532
▁մաս	-11.3532
▁správ	-11.3532
ሆነ	-11.3532
▁výrob	-11.3532
ると	-11.3532
ಸ್ಥ	-11.3532
šķi	-11.3532
ર્થ	-11.3532
▁കൊ	-11.3533
▁memper	-11.3533
ෙකු	-11.3533
▁ପ୍ରତି	-11.3533
स्थित	-11.3533
əcək	-11.3534
ሆን	-11.3534
▁велик	-11.3534
했다	-11.3534
▁добав	-11.3534
▁корист	-11.3534
▁prezent	-11.3535
ុំ	-11.3535
▁последн	-11.3535
▁පැ	-11.3535
ψει	-11.3535
ństw	-11.3535
ົນ	-11.3535
hľad	-11.3535
żjoni	-11.3535
ពី	-11.3536
▁សម	-11.3536
ורי	-11.3537
ਸ਼ਨ	-11.3537
stelling	-11.3537
▁dön	-11.3538
▁خود	-11.3538
μένη	-11.3538
▁خبر	-11.3538
gadzir	-11.3538
▁favori	-11.3539
ഫ്	-11.3539
▁በተ	-11.3541
ывает	-11.3541
▁spraw	-11.3542
▁банк	-11.3542
ෙක්	-11.3542
▁vär	-11.3543
▁separa	-11.3543
▁ministr	-11.3543
ச்சி	-11.3544
▁закон	-11.3544
▁मै	-11.3546
▁አስ	-11.3548
այում	-11.3548
ವರ್	-11.3549
एं	-11.3549
▁кожн	-11.355
▁kompani	-11.355
▁живот	-11.3551
▁सू	-11.3553
anggap	-11.3554
λία	-11.3556
▁যে	-11.3558
ופי	-11.3558
73	-11.3559
كان	-11.3561
59	-11.3562
▁objav	-11.3563
▁стран	-11.3563
बंध	-11.3563
▁yön	-11.3565
ceği	-11.3565
▁cart	-11.3566
ምር	-11.3566
▁अर्	-11.3567
цтв	-11.3569
▁важн	-11.3574
చ్చ	-11.3575
vremen	-11.3577
шава	-11.3577
▁bygg	-11.3579
্ন	-11.358
र्क	-11.358
▁দু	-11.3585
▁sezon	-11.3586
▁fro	-11.3587
قط	-11.3588
ggio	-11.3588
▁simpl	-11.3589
व्य	-11.3591
žava	-11.3593
သော	-11.3595
▁rezultat	-11.3596
▁opini	-11.3597
▁аз	-11.36
▁help	-11.36
्रि	-11.3603
CM	-11.3604
ությունների	-11.3604
SH	-11.3606
63	-11.3609
टो	-11.3612
komand	-11.3612
meye	-11.3614
వ్	-11.3614
jóð	-11.3618
קיי	-11.3618
▁relat	-11.3618
ίδα	-11.3619
ಜ್	-11.3625
عرف	-11.3626
ாளர்	-11.3629
xel	-11.363
ظر	-11.3637
▁glu	-11.3638
PP	-11.3643
▁lähe	-11.3644
siyana	-11.3645
▁сай	-11.3646
▁Blu	-11.3648
ране	-11.3648
▁ubi	-11.3648
ੋਰ	-11.365
halten	-11.365
ůž	-11.3651
ਾਇ	-11.3652
റിയ	-11.3653
▁চা	-11.3659
νου	-11.366
ියා	-11.3661
րկ	-11.3663
▁natural	-11.3665
▁pien	-11.3666
ଠ	-11.3668
fikir	-11.367
масы	-11.3674
כנס	-11.3674
▁Mich	-11.3675
▁mano	-11.3676
രുന്നു	-11.3679
യ്	-11.368
bury	-11.3683
▁الأم	-11.3683
നു	-11.3685
න්ත	-11.3686
▁mož	-11.3687
atif	-11.3689
▁idi	-11.3689
зад	-11.369
νικ	-11.3691
aíochta	-11.3691
ráð	-11.3692
▁Plat	-11.3692
ୃତ	-11.3693
▁kontroll	-11.3694
72	-11.3695
▁yay	-11.3698
форма	-11.3699
▁mlad	-11.3701
まで	-11.3701
▁сайт	-11.3709
yari	-11.3709
้ว	-11.371
र्ज	-11.371
tundu	-11.371
ateur	-11.371
41	-11.3711
્રે	-11.3713
גיע	-11.3714
שלו	-11.3716
sulta	-11.3717
▁Ли	-11.372
miri	-11.3723
ंप	-11.3723
علم	-11.3729
FC	-11.373
ница	-11.3735
кән	-11.3736
ኛው	-11.3738
ölt	-11.3739
minyak	-11.374
▁הס	-11.3743
tref	-11.3743
ციის	-11.3744
יג	-11.3745
्छ	-11.3746
ंगा	-11.3748
▁larg	-11.3748
toire	-11.375
▁ਪੁ	-11.375
تىپ	-11.3753
▁delov	-11.3761
ക്കുന്ന	-11.3761
سع	-11.3761
houd	-11.3761
тың	-11.3763
დეს	-11.3765
рез	-11.3768
δει	-11.3771
▁Ši	-11.3779
ున్న	-11.378
ונג	-11.3783
ত্ত	-11.3783
mhair	-11.3783
▁daar	-11.3784
ridge	-11.3786
▁Para	-11.3787
mekte	-11.3787
sluit	-11.379
સા	-11.379
▁drog	-11.3792
անում	-11.3793
▁taga	-11.3796
กา	-11.3799
ய்	-11.3803
્રો	-11.3804
инде	-11.3805
mhar	-11.3806
ല്ലാ	-11.3809
ლობ	-11.3809
اده	-11.381
ьно	-11.3813
प्त	-11.3817
מק	-11.3817
ಮಾನ	-11.3817
راه	-11.382
OO	-11.3821
공	-11.3822
ტან	-11.3824
ály	-11.3825
מנ	-11.3826
▁остав	-11.3829
ించే	-11.3838
IB	-11.3838
нинг	-11.3838
лээ	-11.384
69	-11.3841
42	-11.3843
ನೇ	-11.3846
மீ	-11.3847
▁вак	-11.3849
ರೋ	-11.3852
хад	-11.3853
▁jud	-11.3853
matic	-11.386
▁Qui	-11.3862
ನು	-11.3863
ိုင်	-11.3864
endele	-11.3868
▁kell	-11.3871
▁hver	-11.3872
plas	-11.3874
వంత	-11.3874
чува	-11.3874
kcj	-11.3875
ిస్త	-11.3878
ταν	-11.3879
ड़ा	-11.3879
CP	-11.388
▁پار	-11.3889
վի	-11.389
self	-11.389
غۇ	-11.3891
ём	-11.3894
▁сил	-11.3894
ىپ	-11.3895
ntang	-11.3897
రూ	-11.3901
▁Jer	-11.3902
тып	-11.3907
كَ	-11.3908
▁све	-11.3909
▁Ве	-11.391
▁пу	-11.391
води	-11.391
స్ట్	-11.3915
ხი	-11.3919
▁vul	-11.3921
ಿಕೆ	-11.3923
ለም	-11.3928
czą	-11.3929
дсэн	-11.3929
VO	-11.393
▁cad	-11.3931
mende	-11.3934
▁stil	-11.3937
▁agr	-11.3937
ьте	-11.3942
έσει	-11.3942
ලේ	-11.3942
zoek	-11.3945
ложен	-11.3946
▁menja	-11.395
වල	-11.395
▁Chan	-11.3952
װ	-11.3955
द्र	-11.3955
post	-11.3957
्यो	-11.3958
োগ	-11.3961
שע	-11.3962
heden	-11.3964
▁оф	-11.3966
▁gəl	-11.3969
బు	-11.3969
ెస్	-11.397
▁личн	-11.3972
SB	-11.3979
▁ווע	-11.3981
ючи	-11.3981
ೇಶ	-11.3983
ιστικ	-11.3984
▁прода	-11.3985
ড়ে	-11.3987
काळ	-11.3987
giorn	-11.3987
ásá	-11.3989
eacha	-11.399
fundo	-11.3993
zott	-11.3993
chean	-11.3994
▁ଦେ	-11.3997
ierung	-11.3997
գն	-11.3999
റ്റി	-11.3999
हार	-11.4
SL	-11.4001
چه	-11.4004
▁menya	-11.4009
EP	-11.401
mhach	-11.4012
▁Naj	-11.4018
▁gef	-11.402
▁işle	-11.4024
いて	-11.4027
рост	-11.4028
మాన	-11.4028
ניה	-11.4029
され	-11.4031
▁respons	-11.4031
▁chem	-11.4033
עש	-11.4035
▁शे	-11.4038
▁аб	-11.4041
▁ব্যা	-11.4043
ײַ	-11.4045
tijd	-11.4045
φή	-11.4047
ન્ડ	-11.4048
krit	-11.4057
▁angl	-11.4058
pool	-11.4058
ganda	-11.406
jong	-11.406
▁bax	-11.4062
ত্য	-11.4062
WA	-11.4063
New	-11.4063
▁face	-11.4063
makta	-11.4064
כא	-11.4065
▁Nap	-11.4075
měn	-11.4079
ätt	-11.408
ば	-11.4087
ισμού	-11.4087
០	-11.4087
ྒ	-11.4087
ෘ	-11.4087
კითხ	-11.4087
Գ	-11.4087
Պ	-11.4087
ჟ	-11.4087
ٻ	-11.4087
ڳ	-11.4087
ः	-11.4087
ৌ	-11.4087
ൺ	-11.4087
ද්ධ	-11.4087
པ	-11.4087
ཟ	-11.4087
ፀ	-11.4087
ẫ	-11.4087
ằ	-11.4087
ỡ	-11.4087
▁Facebook	-11.4087
▁документ	-11.4087
ィ	-11.4087
バ	-11.4087
됩	-11.4087
본	-11.4087
절	-11.4087
청	-11.4087
후	-11.4087
Ό	-11.4087
Θ	-11.4087
Υ	-11.4087
ૈ	-11.4087
ಕೊಳ್ಳ	-11.4087
강	-11.4087
▁constitu	-11.4087
ஞ்ச	-11.4087
ັ້ນ	-11.4087
ịrị	-11.4087
واقع	-11.4087
чувств	-11.4087
▁செய்த	-11.4087
▁процес	-11.4087
▁બનાવ	-11.4087
தாக	-11.4087
れば	-11.4087
▁திரு	-11.4087
ņēm	-11.4087
ോട്	-11.4087
▁клас	-11.4088
▁ସଂ	-11.4088
▁standard	-11.4088
▁szám	-11.4088
▁വീ	-11.4088
▁त्यस	-11.4088
▁ਨਿ	-11.4088
স্ক	-11.4088
च्च	-11.4088
žiūr	-11.4089
доо	-11.4089
イン	-11.4089
אפשר	-11.4089
▁истори	-11.4089
▁comunica	-11.4089
قابل	-11.409
▁член	-11.409
তার	-11.409
▁odgovor	-11.409
▁Program	-11.409
ール	-11.409
▁බැ	-11.409
ុង	-11.4091
▁assist	-11.4091
້ນ	-11.4091
▁গা	-11.4091
οχή	-11.4091
▁oyun	-11.4093
ወሰ	-11.4093
ন্ন	-11.4094
▁szeret	-11.4094
▁kommun	-11.4094
நேர	-11.4095
▁اخت	-11.4096
વો	-11.4097
ሰብ	-11.4097
▁состав	-11.4098
▁влад	-11.4099
ቅር	-11.4099
সকল	-11.41
▁राह	-11.4101
▁Ndi	-11.4101
ಣಿ	-11.4101
▁kontr	-11.4102
גור	-11.4103
▁collect	-11.4104
▁Person	-11.4104
▁ఉండ	-11.4107
▁postup	-11.4108
▁центр	-11.4109
פא	-11.4109
▁rast	-11.411
కర్	-11.411
▁grand	-11.411
▁competi	-11.4111
غير	-11.4111
ছি	-11.4112
BO	-11.4114
මත්	-11.4115
നില	-11.4115
▁regul	-11.4115
▁proje	-11.4116
عار	-11.4117
ieħ	-11.4117
▁качеств	-11.4118
uvchi	-11.4119
لوب	-11.4119
kirja	-11.412
84	-11.412
ġen	-11.4121
▁bab	-11.4122
ționa	-11.4123
▁भारत	-11.4124
ंज	-11.4125
▁муж	-11.4126
ેસ	-11.4127
▁нем	-11.4127
мыз	-11.4127
voir	-11.4131
ାସ	-11.4131
▁Dev	-11.4132
▁справ	-11.4132
sebenza	-11.4132
▁բաց	-11.4133
▁यस	-11.4135
атив	-11.4135
ఆర్	-11.4136
▁нови	-11.4137
ื่อ	-11.4139
ंट	-11.4139
ਅਰ	-11.4141
fang	-11.4141
▁правил	-11.4142
ىشى	-11.4145
ቦች	-11.4148
้อ	-11.4148
krát	-11.415
▁بې	-11.415
daug	-11.4152
ியல்	-11.4152
▁naf	-11.4153
పే	-11.4157
▁мод	-11.4158
acaq	-11.4159
▁jelen	-11.4163
▁голов	-11.4165
▁آر	-11.4168
fòm	-11.4169
តែ	-11.4172
penda	-11.4173
ജി	-11.4178
ņi	-11.4181
مَا	-11.4182
▁konp	-11.4182
▁Pass	-11.4183
▁liter	-11.4185
հայ	-11.4186
କ୍ତ	-11.4187
ებელი	-11.419
blik	-11.419
▁Hotel	-11.4193
ውን	-11.4194
▁artist	-11.4198
ભાવ	-11.4199
SN	-11.42
влен	-11.42
▁කො	-11.42
සිය	-11.42
▁Land	-11.4203
qib	-11.4209
mén	-11.4209
тік	-11.4214
43	-11.4217
খান	-11.4219
▁recept	-11.4226
▁втор	-11.4226
भी	-11.4231
lmiş	-11.4237
▁vēl	-11.4237
čuje	-11.4239
▁süre	-11.424
▁բն	-11.4242
amaan	-11.4242
ण्यात	-11.4243
стой	-11.4245
▁поста	-11.4245
võt	-11.4245
ירות	-11.4248
edere	-11.4248
гун	-11.425
ивает	-11.4251
▁बोल	-11.4262
▁aliment	-11.4262
سام	-11.4262
▁sled	-11.4262
вести	-11.4264
▁miest	-11.4273
▁liik	-11.4278
ън	-11.4279
vind	-11.4284
āšan	-11.4285
вање	-11.4285
ଡ୍	-11.4288
▁veril	-11.4289
theth	-11.429
ენტ	-11.4292
llun	-11.4293
▁color	-11.4294
ىدى	-11.4297
كەن	-11.4298
पर्य	-11.4299
ਮਾਨ	-11.43
TR	-11.43
که	-11.43
handi	-11.4301
▁доби	-11.4303
יני	-11.4307
▁yazı	-11.4307
▁Tim	-11.4308
bring	-11.4309
konna	-11.4311
▁تې	-11.4311
▁câ	-11.4312
ніка	-11.4313
ilishi	-11.4314
চ্ছে	-11.4314
lisha	-11.4316
ต้	-11.4317
▁Bud	-11.4319
čiai	-11.4321
መጠ	-11.4321
▁alle	-11.4332
קוד	-11.4335
مىز	-11.4338
িয়	-11.434
▁በመ	-11.4343
ಂತೆ	-11.4344
өнгө	-11.4345
▁тұр	-11.4345
▁Pil	-11.4346
սկ	-11.4346
▁marg	-11.4346
▁milit	-11.435
81	-11.4352
पण	-11.4354
▁крас	-11.4355
▁arriv	-11.4355
قض	-11.436
rīt	-11.4361
λιο	-11.4362
▁Rob	-11.4362
ינג	-11.4363
BE	-11.4365
▁Prim	-11.4367
▁Nag	-11.4373
▁jun	-11.4375
▁150	-11.4378
▁Mala	-11.4381
િશ	-11.4383
LS	-11.4383
▁primer	-11.4386
soft	-11.4389
duse	-11.4391
RK	-11.4392
bhar	-11.4394
ایت	-11.4394
חור	-11.4398
ផ	-11.4398
સે	-11.4398
φι	-11.4399
▁velik	-11.4402
▁செ	-11.4402
ਹੀ	-11.4402
FO	-11.4405
▁compro	-11.4406
▁olun	-11.441
ούμε	-11.4412
ification	-11.4414
ेंट	-11.4414
▁blog	-11.4418
леп	-11.442
▁analiz	-11.442
zelf	-11.4428
dīt	-11.4429
▁երկ	-11.4434
حمل	-11.4435
šanā	-11.4436
իչ	-11.4442
▁පෙ	-11.4444
ଅ	-11.4445
▁बता	-11.4445
מור	-11.4445
ющих	-11.4446
િસ	-11.4449
pono	-11.445
рым	-11.445
Π	-11.445
išč	-11.445
さ	-11.4451
ਿਸ	-11.4453
▁තිබ	-11.4454
▁send	-11.4458
62	-11.4461
లీ	-11.4464
دور	-11.4465
هار	-11.4467
աստ	-11.4469
▁спа	-11.447
तील	-11.4471
вся	-11.4473
acad	-11.4477
യി	-11.4477
ెంట్	-11.4478
ਪਰ	-11.4478
عرض	-11.448
ተኛ	-11.4481
ौर	-11.4486
քեր	-11.4486
lighet	-11.4488
မ်း	-11.4489
▁කෙ	-11.4495
ileng	-11.4495
▁ପୁ	-11.4496
▁функци	-11.4497
مكن	-11.4498
ఎం	-11.4499
▁उद्	-11.4505
ıldı	-11.4507
mong	-11.4507
▁син	-11.451
ट्ट	-11.451
້ອ	-11.4511
pravil	-11.4521
वाह	-11.4524
ਣੀ	-11.4528
bruk	-11.4534
ପାଇ	-11.4536
▁veid	-11.4538
hlala	-11.454
בית	-11.4541
ගෙන	-11.4541
▁вол	-11.4541
▁Dal	-11.4543
ਜ਼ਾ	-11.4545
ხარ	-11.4546
າມ	-11.4551
کي	-11.4552
જન	-11.4553
ໍ	-11.4553
OW	-11.4555
ۇرۇش	-11.4559
▁שא	-11.4559
্রে	-11.456
▁тіл	-11.4564
IO	-11.4565
▁شی	-11.4566
פות	-11.4567
ctic	-11.4567
ući	-11.4573
huwa	-11.4579
ācij	-11.458
▁iṣ	-11.4581
ąż	-11.4582
▁fog	-11.4583
َة	-11.4585
яване	-11.4587
ક્ટ	-11.4588
ација	-11.4588
फा	-11.4591
abad	-11.4595
ሥ	-11.4598
AV	-11.4598
אַט	-11.4601
ένα	-11.4603
▁rezult	-11.4603
ാല	-11.4605
▁гад	-11.461
гуу	-11.461
ਾਉਣ	-11.4612
▁ishla	-11.4616
ტორი	-11.4617
दू	-11.4623
▁የአ	-11.4625
קע	-11.4625
مبر	-11.4628
marca	-11.4628
ләре	-11.4629
▁නො	-11.4633
জী	-11.4634
ഷണ	-11.4635
ვლის	-11.4636
kép	-11.464
عامل	-11.4641
▁isp	-11.4642
▁milli	-11.4643
হে	-11.4644
தல்	-11.4651
loso	-11.4651
ਸਟ	-11.4651
ளை	-11.4652
▁glav	-11.4654
balik	-11.4658
▁bə	-11.4658
ନ୍ଦ	-11.4658
▁ਮਾ	-11.4665
قە	-11.4667
служ	-11.4668
ഴി	-11.4671
ាំង	-11.4672
▁тарт	-11.4674
qqa	-11.4674
ഓ	-11.4675
ຶ	-11.4675
Ρ	-11.4675
экономи	-11.4675
Ո	-11.4675
ִ	-11.4675
ڊ	-11.4675
ڌ	-11.4675
८	-11.4675
৩	-11.4675
ཉ	-11.4675
ኞ	-11.4675
ኪ	-11.4675
ጆ	-11.4675
ጓ	-11.4675
ៈ	-11.4675
ẻ	-11.4675
겠	-11.4675
난	-11.4675
님	-11.4675
립	-11.4675
열	-11.4675
키	-11.4675
특	-11.4675
편	-11.4675
험	-11.4675
ሶ	-11.4675
▁журнал	-11.4675
▁жұмыс	-11.4675
외	-11.4675
코	-11.4675
활	-11.4675
ֆ	-11.4675
▁hazır	-11.4675
▁rapport	-11.4675
pôsob	-11.4675
പ്പെട്ട	-11.4675
▁байгуул	-11.4675
▁सरकार	-11.4675
temperatur	-11.4675
▁celebra	-11.4675
▁televiz	-11.4675
▁නැ	-11.4675
ଭାବ	-11.4675
ქმნ	-11.4675
ပြည်	-11.4675
ល់	-11.4675
▁automobil	-11.4675
ଣ୍ଟ	-11.4676
▁declar	-11.4676
ସ୍ୱ	-11.4676
ମାନଙ୍କ	-11.4676
▁অভি	-11.4676
កម្ម	-11.4676
▁வீ	-11.4676
മെന്ന	-11.4676
ປະ	-11.4676
▁decora	-11.4676
▁아이	-11.4676
▁solicit	-11.4676
▁tém	-11.4677
ક્ષણ	-11.4677
▁груп	-11.4677
▁çıx	-11.4677
সময়	-11.4677
なり	-11.4679
หล	-11.4679
▁offici	-11.468
▁succes	-11.468
▁доступ	-11.468
moguć	-11.468
เช	-11.468
▁произ	-11.468
▁लोक	-11.4681
▁uživa	-11.4681
▁бүл	-11.4681
ਵਾਂ	-11.4682
▁contact	-11.4682
▁period	-11.4682
গত	-11.4682
ହୁ	-11.4682
▁përdor	-11.4682
▁କେ	-11.4683
▁природ	-11.4684
ਵੀ	-11.4684
gbọ	-11.4685
ਸਲ	-11.4685
▁Рус	-11.4686
füg	-11.4687
HE	-11.4688
вялі	-11.469
▁hō	-11.4691
▁топ	-11.4691
▁vlastn	-11.4692
▁zim	-11.4693
φων	-11.4693
▁Fab	-11.4693
▁skirt	-11.4694
паз	-11.4694
ெய்	-11.4695
▁mäng	-11.4696
▁Super	-11.4696
ítés	-11.4696
τρα	-11.4696
minister	-11.4697
मुख	-11.4697
ብር	-11.4698
पद	-11.4702
ուկ	-11.4702
город	-11.4703
한다	-11.4704
▁nivel	-11.4704
ధాన	-11.4705
რობ	-11.4707
nehmen	-11.4707
jsk	-11.4708
▁americ	-11.471
▁raport	-11.471
யின்	-11.471
▁cult	-11.4711
מרי	-11.4712
व्या	-11.4713
ため	-11.4714
ىلەر	-11.4716
ykl	-11.472
ለት	-11.4725
cteur	-11.4725
▁әйт	-11.4726
▁figur	-11.4727
ورو	-11.473
▁yaz	-11.4735
▁Registr	-11.4735
▁सम्	-11.4736
▁dú	-11.4736
▁ઉપ	-11.4737
▁zvino	-11.4737
шил	-11.4738
▁End	-11.4738
стер	-11.4739
ėjim	-11.474
роз	-11.474
AA	-11.4741
ଦ୍ଧ	-11.4742
UT	-11.4745
▁yoku	-11.4747
ંડ	-11.4747
бей	-11.4748
koľ	-11.4748
ദി	-11.475
્ક	-11.4751
▁डि	-11.4751
Éå	-11.4751
ходит	-11.4752
▁күр	-11.4752
▁vég	-11.4755
▁හැ	-11.4755
ജ്	-11.4757
▁থাক	-11.4758
▁бала	-11.4759
▁gerek	-11.4759
طور	-11.4764
▁મો	-11.4765
दर्श	-11.4765
flex	-11.4768
tellung	-11.4768
▁depend	-11.4769
જુ	-11.477
ាត	-11.477
імді	-11.4771
▁Tren	-11.4771
áció	-11.4772
yobo	-11.4774
τού	-11.4776
▁access	-11.478
бут	-11.478
▁நா	-11.4781
рады	-11.4783
▁moment	-11.4787
▁Bank	-11.4791
▁eleva	-11.4791
ಚ್ಚ	-11.4791
्ष	-11.4791
ljanj	-11.4792
łoś	-11.4793
נא	-11.4795
▁diper	-11.4795
▁Gü	-11.4796
faidh	-11.4796
▁treba	-11.48
हन	-11.4802
mız	-11.4804
wyl	-11.4815
აცია	-11.4815
▁فرا	-11.4817
HS	-11.4819
▁qur	-11.4821
крат	-11.4822
сал	-11.4823
κτη	-11.4824
▁actu	-11.4824
רד	-11.4824
kwazi	-11.4825
▁Roman	-11.4825
▁खु	-11.4833
وث	-11.4834
ેજ	-11.4835
ימי	-11.4836
kazuj	-11.4837
чні	-11.4841
▁Biz	-11.4844
விட்ட	-11.4849
сім	-11.4849
чә	-11.485
وک	-11.4852
▁Mark	-11.4852
خور	-11.4855
চি	-11.4859
nahme	-11.486
▁tablet	-11.4864
house	-11.4866
▁ट्र	-11.4866
skog	-11.4867
▁oor	-11.4867
వ్య	-11.4869
▁Merc	-11.487
▁regel	-11.4874
▁haw	-11.4879
കാര	-11.4879
▁okaz	-11.4881
▁distr	-11.4881
MB	-11.4882
▁Бар	-11.4883
χι	-11.4884
▁kø	-11.4885
فور	-11.4888
cors	-11.4889
னா	-11.4889
ëll	-11.4891
ستر	-11.4895
▁үс	-11.4895
▁Europe	-11.4896
ENT	-11.4897
ସ୍ଥ	-11.4902
▁Fal	-11.4903
ভাবে	-11.4903
ுவத	-11.491
fique	-11.4912
town	-11.4913
дсан	-11.4916
dź	-11.492
ధి	-11.4922
στι	-11.4923
қты	-11.4925
мони	-11.4928
▁کرد	-11.4929
ऱ्या	-11.493
jęci	-11.4932
ਮਾਰ	-11.4938
ળી	-11.4938
▁plac	-11.4938
▁رہ	-11.4944
لىدۇ	-11.4944
ಮೆ	-11.4945
spill	-11.4946
ាល	-11.4946
rätt	-11.4947
▁Аз	-11.4949
▁iç	-11.495
ۋى	-11.4952
▁асуу	-11.4953
▁ўз	-11.4953
▁చె	-11.4954
दल	-11.4958
▁Че	-11.4963
cerca	-11.4968
τυχ	-11.4968
ільн	-11.4972
বাদ	-11.4972
ått	-11.4975
νων	-11.4976
मल	-11.4976
▁ngh	-11.4978
ț	-11.4978
դար	-11.4979
pack	-11.4981
gtig	-11.4983
araka	-11.4985
जित	-11.4985
nutí	-11.4988
ireann	-11.4989
ítás	-11.4992
▁இருந்த	-11.4994
sikt	-11.4995
యన్	-11.4998
▁wiel	-11.4998
क्षा	-11.4999
▁призна	-11.5005
▁keç	-11.5006
▁құра	-11.5009
▁சா	-11.501
essä	-11.5011
änder	-11.5011
עור	-11.5016
fass	-11.5017
क्षण	-11.5018
▁бич	-11.5025
ۈپ	-11.5032
istic	-11.5034
тыру	-11.5035
كار	-11.5037
ພາ	-11.5037
▁সর	-11.5037
πω	-11.5041
зия	-11.5043
íð	-11.5043
රණ	-11.505
שפ	-11.5051
шат	-11.5053
weyn	-11.5054
ඩු	-11.5054
▁garant	-11.5055
दान	-11.5059
ಲಾಗಿ	-11.506
пуст	-11.506
▁برا	-11.5063
komm	-11.5065
ଥି	-11.5066
Ա	-11.5069
нова	-11.5081
▁kò	-11.5087
stone	-11.509
▁இட	-11.5092
ább	-11.5093
▁Lor	-11.5098
ტერ	-11.51
▁iom	-11.51
باد	-11.5102
ૃત	-11.5103
έρα	-11.5104
बल	-11.5105
czyn	-11.5105
MT	-11.5105
▁неко	-11.511
그	-11.511
▁Gor	-11.5111
▁дела	-11.5112
▁тус	-11.5115
ྱི	-11.5116
▁format	-11.5117
▁etdi	-11.5117
țe	-11.512
лігі	-11.5121
sebenzis	-11.5121
आ	-11.5123
िम	-11.5124
▁পড়	-11.5125
డే	-11.5129
▁kullan	-11.5129
දර	-11.5133
റു	-11.5134
र्ण	-11.5139
▁लग	-11.5139
▁video	-11.5141
ству	-11.5142
מפ	-11.5143
▁Div	-11.5143
▁ってい	-11.5144
ոտ	-11.5145
ழை	-11.5145
▁pw	-11.5148
દર	-11.5152
▁origin	-11.5155
ādī	-11.5155
0000	-11.516
▁ჩა	-11.5164
▁бара	-11.5166
▁በአ	-11.5166
ਇਆ	-11.5173
повід	-11.5177
एर	-11.5184
าม	-11.5187
rming	-11.519
300	-11.5191
вест	-11.5192
ਖਾ	-11.5199
▁Ту	-11.52
ಂಕ	-11.5202
гээр	-11.5203
ବି	-11.5203
ేషన	-11.5206
あり	-11.5207
mell	-11.5209
▁shar	-11.521
ლობა	-11.521
▁സാ	-11.521
ન્ટ	-11.5214
charge	-11.5214
▁tink	-11.5214
തിര	-11.5217
സു	-11.5218
garan	-11.5225
luss	-11.523
ருந்து	-11.5231
▁አለ	-11.5234
त्व	-11.5234
▁membe	-11.5234
ഏ	-11.5235
стој	-11.5239
dapat	-11.5241
▁Frank	-11.5243
▁שנ	-11.5244
▁Kha	-11.5245
▁кош	-11.5246
త్య	-11.5247
▁ব্য	-11.5249
▁valid	-11.5252
▁elő	-11.5252
քան	-11.5253
رسی	-11.5254
лым	-11.5255
öst	-11.5259
▁इस	-11.5261
στά	-11.5264
อย	-11.5264
ນາ	-11.5266
▁univers	-11.5273
▁kump	-11.5278
▁priprav	-11.5281
لأ	-11.5285
KO	-11.5286
IV	-11.5293
ქცი	-11.5294
संग	-11.5294
ற்றி	-11.5294
▁Му	-11.5295
ັ	-11.5296
օ	-11.5297
عام	-11.5297
JA	-11.5299
ਠ	-11.53
ਛ	-11.53
Լ	-11.53
Ó	-11.53
Ġ	-11.53
ŵ	-11.53
Χ	-11.53
Ҳ	-11.53
৫	-11.53
ਊ	-11.53
ஊ	-11.53
ൗ	-11.53
ሐ	-11.53
ሸ	-11.53
ጻ	-11.53
ፕ	-11.53
▁Administra	-11.53
▁Европ	-11.53
べ	-11.53
オ	-11.53
권	-11.53
남	-11.53
민	-11.53
양	-11.53
종	-11.53
티	-11.53
피	-11.53
દ્ધ	-11.53
ଞ୍ଚ	-11.53
ኃ	-11.53
ፅ	-11.53
▁생각	-11.53
チ	-11.53
블	-11.53
▁висок	-11.53
સ્થા	-11.53
niecība	-11.53
▁pêş	-11.53
▁αρχ	-11.53
▁ප්ර	-11.53
▁ընտր	-11.53
▁медицин	-11.53
▁площ	-11.53
▁conclu	-11.53
▁உள்ள	-11.53
წევ	-11.53
▁वापर	-11.53
▁көрсет	-11.53
ுடைய	-11.5301
ର୍ତ୍ତ	-11.5301
▁հարց	-11.5301
▁υπο	-11.5301
▁tradition	-11.5301
▁ერთ	-11.5301
▁команд	-11.5301
ထား	-11.5301
▁atmosf	-11.5301
▁различ	-11.5301
ползва	-11.5301
လေး	-11.5301
▁получа	-11.5301
більш	-11.5301
▁открыт	-11.5301
▁نمای	-11.5302
▁ndër	-11.5302
ശ്ര	-11.5302
▁이용	-11.5302
گذار	-11.5302
ੱਡ	-11.5302
ການ	-11.5302
ცემ	-11.5302
▁equip	-11.5302
కరించ	-11.5302
▁dedica	-11.5302
كام	-11.5303
▁rezerv	-11.5303
▁κατά	-11.5303
▁автор	-11.5303
kuntza	-11.5303
▁diagno	-11.5303
ਸਤ	-11.5304
▁वै	-11.5304
յալ	-11.5304
arbeid	-11.5304
▁παρά	-11.5304
▁negativ	-11.5304
หม	-11.5305
ფას	-11.5306
▁కార్	-11.5307
▁člen	-11.5307
tekerez	-11.5307
น์	-11.5307
▁talál	-11.5307
しい	-11.531
ático	-11.531
மல்	-11.5311
ಮೀ	-11.5311
Jehov	-11.5313
▁effect	-11.5313
▁nacional	-11.5314
logic	-11.5315
félag	-11.5315
ਨਾਂ	-11.5316
▁maxim	-11.5316
AU	-11.5316
खर	-11.5318
യില	-11.5322
kutan	-11.5323
▁druh	-11.5323
achtaí	-11.5323
▁Petr	-11.5323
▁pojav	-11.5324
▁gé	-11.5324
▁komplet	-11.5325
mány	-11.5327
▁nær	-11.5327
▁студ	-11.5328
hlob	-11.5328
▁қар	-11.5328
овани	-11.533
ীত	-11.5333
تجار	-11.5336
ește	-11.534
ಗ್ರ	-11.5341
▁extra	-11.5341
urnal	-11.5341
പി	-11.5342
▁aasta	-11.5342
ാവ	-11.5343
▁skj	-11.5344
क्रम	-11.5344
▁magaz	-11.5345
ائد	-11.5347
▁vizit	-11.5347
ెల్	-11.535
▁Rich	-11.5351
▁основн	-11.5356
ţa	-11.5358
שק	-11.536
shandis	-11.5361
mittel	-11.5363
▁significa	-11.5366
▁poslov	-11.5366
សា	-11.5367
HD	-11.5368
larında	-11.537
ಜಾ	-11.5373
fäll	-11.5373
▁relativ	-11.5376
▁funciona	-11.5376
▁баз	-11.5377
▁تأ	-11.5377
flok	-11.5381
sourc	-11.5388
▁Лу	-11.539
▁bendr	-11.5391
tirish	-11.5391
лгән	-11.5392
▁شک	-11.5393
ಯು	-11.5394
▁bulun	-11.5398
▁Ferr	-11.54
సర్	-11.5402
řad	-11.5402
čení	-11.5403
ейді	-11.5405
ంగ	-11.5406
stille	-11.5406
కీ	-11.5413
सभा	-11.5413
▁Top	-11.5417
▁popol	-11.5418
ANG	-11.5418
▁হয়	-11.542
▁total	-11.5423
▁ಶಾ	-11.5423
MD	-11.5426
▁আগ	-11.5427
imenti	-11.5432
hlan	-11.5442
வரை	-11.5442
ायक	-11.5446
▁dvo	-11.5447
▁alın	-11.5454
▁கட்ட	-11.5461
্ধ	-11.5461
▁хэрэглэ	-11.5462
လာ	-11.5465
▁খা	-11.5465
▁skat	-11.5467
ÉxÉ	-11.5478
ביר	-11.5487
eeya	-11.549
▁پیش	-11.549
ത്തു	-11.5491
▁खेल	-11.5499
jący	-11.5502
▁akar	-11.5505
ילי	-11.5505
▁nå	-11.5505
طار	-11.5508
lighed	-11.5515
▁кил	-11.5515
ஷ்	-11.5516
ilẹ	-11.5516
right	-11.5518
▁καθ	-11.5519
ترك	-11.5524
▁sektor	-11.5528
▁kupi	-11.5534
데	-11.5535
partemen	-11.5535
ତୁ	-11.5536
▁прв	-11.5537
յուն	-11.5538
טוב	-11.5538
▁කිය	-11.5539
PG	-11.554
▁може	-11.5541
▁analy	-11.5541
ække	-11.5541
▁horre	-11.5546
જી	-11.5547
ந்திர	-11.5552
স্ব	-11.5553
ćenj	-11.5554
хэн	-11.5555
সব	-11.5556
бет	-11.5556
mpah	-11.5561
υχ	-11.5563
massa	-11.5565
quar	-11.5568
πορ	-11.557
▁cél	-11.5573
▁consider	-11.5585
igita	-11.5585
▁чист	-11.5585
cesso	-11.5588
▁punt	-11.5589
▁जान	-11.5589
▁මි	-11.5593
ladh	-11.5594
▁Մի	-11.5596
▁shak	-11.5596
lməsi	-11.5597
▁ផ្	-11.5599
זור	-11.5601
▁mô	-11.5601
pping	-11.5603
ånd	-11.5606
وسی	-11.5606
▁প্রা	-11.5609
owany	-11.561
torial	-11.5611
▁mest	-11.5613
lieb	-11.5614
ציע	-11.5616
لەش	-11.5616
ميل	-11.5619
érieur	-11.5619
ੰਮ	-11.5621
quil	-11.5624
ुट	-11.5625
گار	-11.5629
မိ	-11.5631
खि	-11.5631
▁Play	-11.5632
মার	-11.5635
یح	-11.5636
▁banc	-11.5642
യത്	-11.5642
▁раст	-11.5645
ырып	-11.565
ध्ये	-11.5652
▁Gw	-11.5655
Tech	-11.5658
льник	-11.5658
ુલ	-11.5659
▁тара	-11.5659
දෙන	-11.566
suz	-11.566
▁count	-11.5662
τέρ	-11.5664
ované	-11.5664
ଶା	-11.5669
लाइ	-11.5671
ሚያ	-11.5672
uair	-11.5675
sats	-11.568
▁тас	-11.5686
▁Pic	-11.5687
soro	-11.5689
▁ordin	-11.569
emia	-11.5693
onic	-11.5696
▁oblig	-11.5698
▁etme	-11.5698
▁mét	-11.5699
▁Nic	-11.5701
▁үнэ	-11.5713
ভাব	-11.5714
ంట్	-11.5716
llisest	-11.5716
тичн	-11.5716
рск	-11.5718
्ब	-11.5718
ています	-11.572
▁അത	-11.5722
ائق	-11.573
უბ	-11.5731
รี	-11.5733
ລາ	-11.5739
▁актив	-11.574
ზო	-11.5745
жин	-11.5747
فضل	-11.5749
ેલા	-11.5756
στήρι	-11.5761
ਕਲ	-11.5762
rette	-11.5766
ոք	-11.5767
▁рэ	-11.5771
eep	-11.5772
ालय	-11.5778
▁ಹೊ	-11.5778
▁Amb	-11.5778
راح	-11.5779
பர	-11.5784
rwydd	-11.5784
▁आज	-11.5785
ੱਟ	-11.5787
ftig	-11.5788
מיד	-11.5789
אס	-11.579
रहे	-11.5794
დენ	-11.5795
▁хэрэг	-11.5796
skola	-11.5797
DC	-11.5798
პა	-11.5799
చార	-11.5803
ndika	-11.5807
ಳು	-11.5808
▁дво	-11.5808
യെ	-11.5808
ọọ	-11.5808
HO	-11.5811
▁mess	-11.5812
ණි	-11.5819
ાઈ	-11.5822
מצא	-11.5824
ორი	-11.5827
ម៉	-11.5829
Ш	-11.5831
▁kabu	-11.5833
version	-11.5839
weise	-11.5839
čný	-11.5841
vrij	-11.5845
χν	-11.5847
ାଉ	-11.5849
ਬਰ	-11.5849
ત્ત	-11.585
atanga	-11.5853
фон	-11.5853
ดี	-11.5855
▁programm	-11.5858
ສາ	-11.5864
вши	-11.5864
циал	-11.5867
ировани	-11.5874
▁înc	-11.5876
วิ	-11.5877
ākum	-11.588
খন	-11.5887
்ட	-11.5892
ويل	-11.5894
▁anali	-11.5896
മാന	-11.5896
▁Pop	-11.5898
BL	-11.5906
الله	-11.5909
ୋଜ	-11.5911
▁яс	-11.5915
rouw	-11.592
ලැබ	-11.5927
ある	-11.593
▁määr	-11.5936
врат	-11.5939
▁запа	-11.594
ۇپ	-11.5941
▁representa	-11.5942
DD	-11.5944
راف	-11.5944
▁jät	-11.5946
อบ	-11.5949
▁факт	-11.5949
▁Sub	-11.595
▁քաղաք	-11.595
▁саб	-11.5953
vill	-11.5957
ľov	-11.596
ൂര്	-11.5962
πει	-11.5962
ಲಾಗುತ್ತ	-11.5964
ឹ	-11.5965
▁వై	-11.5966
합	-11.5966
ঙ	-11.5966
▁ընդ	-11.5967
Ω	-11.5967
ඹ	-11.5967
▁çalışma	-11.5967
▁ներկայաց	-11.5967
ज्ञा	-11.5967
मुळे	-11.5967
९	-11.5967
ਓ	-11.5967
૦	-11.5967
૧	-11.5967
୧	-11.5967
ఘ	-11.5967
ගැනීම	-11.5967
දේශ	-11.5967
ั้น	-11.5967
ๆ	-11.5967
ྡ	-11.5967
၃	-11.5967
ჰ	-11.5967
ፎ	-11.5967
▁Америк	-11.5967
▁технологи	-11.5967
▁փոխ	-11.5967
ね	-11.5967
ほ	-11.5967
ニ	-11.5967
곳	-11.5967
근	-11.5967
더	-11.5967
린	-11.5967
색	-11.5967
책	-11.5967
Ĉ	-11.5967
ঝ	-11.5967
ল্প	-11.5967
▁తెలు	-11.5967
루	-11.5967
복	-11.5967
올	-11.5967
▁especial	-11.5967
▁Twitter	-11.5967
▁ndrysh	-11.5967
▁īpaš	-11.5967
នេះ	-11.5967
▁제공	-11.5967
▁Fotograf	-11.5967
▁ठेव	-11.5967
ेन्द्र	-11.5967
chádza	-11.5967
▁absolu	-11.5967
▁தமிழ	-11.5967
ÑÇÑpÑ	-11.5967
▁시작	-11.5967
▁чыгар	-11.5967
▁చెప్ప	-11.5967
▁사람	-11.5967
▁Black	-11.5967
▁хорош	-11.5967
ագույն	-11.5967
▁студент	-11.5967
▁યુ	-11.5967
▁observ	-11.5967
पूर्व	-11.5967
▁služb	-11.5967
ਚਾਰ	-11.5967
दिवस	-11.5967
입니	-11.5967
▁свобод	-11.5968
భావ	-11.5968
طالب	-11.5968
භාව	-11.5968
▁цвет	-11.5968
▁račun	-11.5968
တော်	-11.5968
ให	-11.5968
যুক্ত	-11.5968
ード	-11.5968
ไป	-11.5968
▁बढ़	-11.5968
▁elimina	-11.5969
▁қолдан	-11.5969
▁মো	-11.5969
▁கூட	-11.5969
ọ̀	-11.5969
ਦੇਸ਼	-11.5969
▁rozhod	-11.5969
▁επί	-11.5969
េច	-11.5969
ቢያ	-11.5969
▁aspekt	-11.5969
φόρ	-11.597
▁ಪರಿ	-11.597
пълн	-11.597
▁направи	-11.597
▁тэм	-11.597
▁अभि	-11.597
วัน	-11.597
▁කැ	-11.5971
▁өв	-11.5971
ительны	-11.5971
ிருந்த	-11.5971
ለሁ	-11.5971
▁бүр	-11.5972
▁बढ	-11.5972
▁தலை	-11.5972
▁совет	-11.5973
▁aval	-11.5973
▁спорт	-11.5973
ូរ	-11.5973
▁obchod	-11.5974
▁yhte	-11.5975
▁XX	-11.5976
களி	-11.5976
ποιο	-11.5977
▁тол	-11.5977
▁technologi	-11.5977
ສະ	-11.5978
வற்ற	-11.5978
ገና	-11.5978
መጣ	-11.5978
ជន	-11.5978
បាន	-11.5978
▁amely	-11.5979
LD	-11.5981
▁civil	-11.5982
▁yüz	-11.5982
ብረ	-11.5982
▁این	-11.5985
قبل	-11.5985
▁היי	-11.5986
خاص	-11.5987
▁kjø	-11.5989
ियर	-11.5989
פח	-11.599
▁design	-11.599
మని	-11.5992
позици	-11.5994
▁učin	-11.5994
ាល់	-11.5996
▁imagin	-11.5996
▁алма	-11.5997
ર્ડ	-11.5998
cultura	-11.5999
UB	-11.6
ماه	-11.6005
▁eigen	-11.6005
▁influ	-11.6008
okuba	-11.6008
ידע	-11.6009
ગત	-11.601
చర్	-11.601
▁кит	-11.6014
علی	-11.6014
kkaa	-11.6016
▁zakon	-11.6017
▁identifica	-11.602
▁teknik	-11.602
mbung	-11.6022
▁ਬਣ	-11.6022
frå	-11.6023
▁zelen	-11.6025
▁извест	-11.6027
wał	-11.6032
आई	-11.6032
▁گل	-11.6033
EB	-11.6034
żej	-11.6035
▁ühe	-11.6038
▁tempor	-11.6038
▁permit	-11.6038
▁കുറ	-11.6039
▁rapid	-11.6041
▁ultim	-11.6044
ýän	-11.6047
ৃত	-11.6053
ჯერ	-11.6053
▁वाट	-11.6054
ফি	-11.6055
ंध	-11.6057
▁direktor	-11.6058
▁with	-11.6059
ẹ̀	-11.6061
šaj	-11.6062
ευση	-11.6064
visual	-11.6066
მს	-11.607
▁skup	-11.607
▁kvin	-11.6071
षण	-11.6072
▁työ	-11.6074
▁ଦେଖ	-11.6074
▁föl	-11.6074
▁klassi	-11.6076
▁सांग	-11.6076
▁kaba	-11.6077
▁aero	-11.608
▁ocen	-11.6084
▁Comun	-11.6087
ബാ	-11.6089
мек	-11.6091
▁gost	-11.6091
ាញ	-11.6092
▁என	-11.6093
▁stanov	-11.6093
ראש	-11.6094
flow	-11.6098
ltä	-11.6101
▁faktor	-11.6102
তু	-11.6103
ādā	-11.6104
бір	-11.611
ohl	-11.6111
පිට	-11.6113
rétt	-11.6113
▁Ord	-11.6116
▁već	-11.6117
▁જાણ	-11.6119
میر	-11.6125
▁මහ	-11.6126
▁თავ	-11.6127
װע	-11.6129
شق	-11.6133
TRA	-11.6137
ობით	-11.6141
EE	-11.6142
dzidz	-11.6144
▁મે	-11.6146
لىشى	-11.6149
ලිය	-11.615
▁göz	-11.6151
▁kind	-11.6153
யில	-11.6153
ራዊ	-11.6158
▁pè	-11.616
શો	-11.6165
nāt	-11.6165
▁வந்த	-11.6168
▁titul	-11.6169
iley	-11.617
▁realit	-11.6171
▁Prov	-11.6171
▁техни	-11.6173
znacz	-11.6175
امن	-11.6178
त्ता	-11.618
നങ്ങള	-11.618
▁segur	-11.6182
▁روز	-11.6184
צמ	-11.6186
શી	-11.619
▁കൂ	-11.6197
ජා	-11.62
▁کال	-11.62
stral	-11.6202
▁kullanı	-11.6205
देखि	-11.6206
onekan	-11.6206
جاز	-11.6207
שיר	-11.6208
ిస్తు	-11.6208
কাল	-11.6211
ફર	-11.6212
saidi	-11.6216
dangan	-11.6217
▁aiz	-11.6217
ığı	-11.6218
స్తున్న	-11.6219
▁لگ	-11.6219
▁financ	-11.6219
▁Liber	-11.6223
break	-11.6231
▁interven	-11.6236
ضاء	-11.6237
▁қос	-11.6238
ွန်	-11.624
ealth	-11.6243
דור	-11.6243
ವಾರ	-11.6244
خص	-11.6248
▁képe	-11.6249
▁haf	-11.625
▁பட	-11.6251
ਬਲ	-11.6254
ിക്കുക	-11.6259
ाचे	-11.6261
EI	-11.6262
ନୀ	-11.6262
▁հար	-11.6264
stæð	-11.6268
▁тем	-11.6275
ेशन	-11.6275
עג	-11.628
ུག	-11.6281
ੋੜ	-11.6288
korra	-11.6288
вания	-11.6292
රියා	-11.6292
rance	-11.6293
ستخدم	-11.6295
▁రాజ	-11.6295
ಕರು	-11.6304
▁adat	-11.6305
ριστ	-11.6307
צל	-11.6308
wọn	-11.6309
ଠା	-11.631
யன்	-11.6312
laeth	-11.6313
▁täh	-11.6316
ալի	-11.6316
▁Мин	-11.632
spiel	-11.6321
▁stað	-11.6323
æld	-11.6324
δυ	-11.6325
▁lamp	-11.6325
אמר	-11.6331
հատ	-11.6334
xona	-11.6334
ድን	-11.6336
▁нос	-11.6336
ଜ୍	-11.6336
ібн	-11.6341
خدم	-11.6346
▁general	-11.6351
טיק	-11.6352
▁determina	-11.6352
▁pošt	-11.636
ॉल	-11.636
نْ	-11.6362
▁آس	-11.6364
zyst	-11.6365
▁पार	-11.6368
फो	-11.6368
▁svak	-11.6369
▁лиц	-11.6374
чык	-11.6374
▁الحر	-11.6375
ጃ	-11.6376
følge	-11.6377
▁люд	-11.6381
ደረ	-11.6386
bûn	-11.6389
յի	-11.639
msebenzi	-11.6393
folk	-11.6394
চ্ছ	-11.6396
sýn	-11.6399
ывать	-11.6401
אָל	-11.6401
ಟೆ	-11.6401
▁Pap	-11.6405
ٹھ	-11.6407
tiene	-11.6412
shuri	-11.6416
ੁਰ	-11.6419
ಾಸ	-11.6421
غى	-11.6423
öll	-11.6424
CN	-11.6424
▁منت	-11.6426
▁West	-11.6427
ገባ	-11.6433
▁കോ	-11.6433
ÉÊ	-11.6434
bulu	-11.6435
▁работа	-11.6435
جاب	-11.6435
յակ	-11.6436
దీ	-11.6437
ρού	-11.6438
រី	-11.6444
Blog	-11.6444
usaha	-11.6445
ppel	-11.6448
χεί	-11.6452
▁mín	-11.6455
ତ୍ତ	-11.646
PT	-11.646
fanir	-11.647
PV	-11.6473
גיש	-11.6474
▁мэдэ	-11.6476
▁dè	-11.648
ানো	-11.6483
علي	-11.6484
لىقى	-11.6485
▁tent	-11.6485
▁ideal	-11.6486
تىن	-11.6487
oqda	-11.6491
FT	-11.6492
ရင်	-11.6493
ház	-11.6495
EK	-11.6495
μεί	-11.6498
▁очи	-11.65
▁पै	-11.6506
лети	-11.6508
ണ്ണ	-11.6509
▁acqu	-11.6514
ює	-11.6519
▁உட	-11.652
קני	-11.652
ğını	-11.6521
TOR	-11.6523
казва	-11.6532
ុក	-11.6532
▁memor	-11.6534
▁पार्	-11.654
মত	-11.654
▁רע	-11.6544
folge	-11.6545
धिक	-11.6549
ોડ	-11.656
למי	-11.6562
ଦ୍ର	-11.6567
▁കി	-11.657
▁Off	-11.6588
▁clic	-11.6588
▁дей	-11.659
▁компани	-11.659
աբար	-11.6591
باب	-11.6597
rangan	-11.6598
lopp	-11.6599
ART	-11.6599
Հ	-11.6599
▁கொ	-11.6606
ضح	-11.6606
பர்	-11.6609
ಪಿ	-11.6611
þ	-11.6616
krip	-11.6616
person	-11.6617
्ता	-11.6617
सम्म	-11.6623
тарды	-11.6623
ರಿಯ	-11.6625
سلم	-11.6628
▁Bill	-11.6628
ველი	-11.6632
தான	-11.664
अ	-11.664
פיר	-11.6644
पट	-11.665
hluk	-11.6652
şdır	-11.6659
▁المست	-11.6664
▁सुन	-11.6664
riaeth	-11.6664
ющие	-11.6665
يوم	-11.6668
▁organisa	-11.6669
ிருக்க	-11.6669
ሆ	-11.6677
▁коле	-11.6677
ోర్	-11.6678
레	-11.6679
οποίηση	-11.668
▁যু	-11.668
র্থ	-11.6681
င	-11.6681
확	-11.6681
알	-11.6681
působ	-11.6681
հետեւ	-11.6681
ٺ	-11.6681
ऐ	-11.6681
୨	-11.6681
ഞ്ച	-11.6681
ཏ	-11.6681
ጦ	-11.6681
▁problém	-11.6681
▁электрон	-11.6681
▁କାର୍ଯ୍ୟ	-11.6681
サ	-11.6681
참	-11.6681
테	-11.6681
!	-11.6681
?	-11.6681
À	-11.6681
ɓ	-11.6681
λαμβάν	-11.6681
خصوص	-11.6681
۵	-11.6681
۹	-11.6681
ঞ্চ	-11.6681
ਝ	-11.6681
ଓ	-11.6681
୦	-11.6681
ഘ	-11.6681
ඒ	-11.6681
කිරීම	-11.6681
ඛ	-11.6681
ቷ	-11.6681
ጸ	-11.6681
៣	-11.6681
▁беларус	-11.6681
▁определен	-11.6681
▁என்பத	-11.6681
▁வழங்க	-11.6681
ケ	-11.6681
ズ	-11.6681
ツ	-11.6681
デ	-11.6681
ネ	-11.6681
パ	-11.6681
ュ	-11.6681
글	-11.6681
란	-11.6681
류	-11.6681
른	-11.6681
못	-11.6681
석	-11.6681
언	-11.6681
ኢ	-11.6681
▁slovensk	-11.6681
▁министр	-11.6681
▁kilometr	-11.6681
▁məsələ	-11.6681
బంధ	-11.6681
▁стандарт	-11.6681
▁указан	-11.6681
▁ஒரு	-11.6681
▁これ	-11.6681
حافظ	-11.6681
▁குறை	-11.6681
▁എന്നിവ	-11.6681
ുമ്പോ	-11.6681
ស៊ី	-11.6681
▁independ	-11.6681
▁global	-11.6681
▁najbolj	-11.6681
წავლ	-11.6681
▁түсі	-11.6681
ကြီး	-11.6681
▁pubblic	-11.6681
▁འབ	-11.6681
wyższ	-11.6681
প্ত	-11.6681
vilupp	-11.6681
▁տես	-11.6681
▁འག	-11.6681
▁ಮುಂ	-11.6681
▁власн	-11.6681
▁fabric	-11.6682
နေ့	-11.6682
▁ինչ	-11.6682
▁základ	-11.6682
▁monitor	-11.6682
ੱਥ	-11.6682
ಧಾನ	-11.6682
▁digital	-11.6682
້ອງ	-11.6682
ಫ್	-11.6683
фект	-11.6683
▁என்ன	-11.6683
▁красив	-11.6683
క్షణ	-11.6683
েন্ট	-11.6683
▁घेत	-11.6683
▁posledn	-11.6683
च्छ	-11.6683
▁молод	-11.6683
▁отлич	-11.6683
משפח	-11.6683
시간	-11.6684
уальн	-11.6684
▁ανά	-11.6684
بحث	-11.6684
▁komunika	-11.6684
ംഗ്	-11.6684
▁applica	-11.6684
பாடு	-11.6684
스트	-11.6685
▁govern	-11.6685
່ວ	-11.6685
▁метод	-11.6686
េង	-11.6686
▁назва	-11.6686
තුරු	-11.6686
なく	-11.6686
ಂತರ	-11.6686
▁ئۆز	-11.6686
▁అంత	-11.6687
ذكر	-11.6687
▁hesab	-11.6687
▁každ	-11.6687
▁ସୁ	-11.6687
τερο	-11.6688
hitaji	-11.6688
گیری	-11.6688
craft	-11.6689
ส์	-11.6689
▁тэр	-11.6689
▁Conf	-11.6689
▁filtr	-11.6689
▁счита	-11.669
हरु	-11.669
qhub	-11.669
kwụ	-11.669
দায়	-11.6691
▁effett	-11.6691
▁elkar	-11.6692
▁guzti	-11.6692
▁nutri	-11.6692
▁помог	-11.6692
▁micro	-11.6693
▁certifica	-11.6694
EST	-11.6694
ējum	-11.6695
ført	-11.6695
▁አይ	-11.6695
कर्म	-11.6695
ከተ	-11.6696
▁məh	-11.6696
malla	-11.6697
▁konferenc	-11.6698
ండా	-11.6699
▁conduc	-11.6699
جلس	-11.6699
োৱা	-11.6702
وجه	-11.6702
▁muzik	-11.6703
ground	-11.6703
охир	-11.6704
ვით	-11.6704
▁सब	-11.6705
xesha	-11.6707
hető	-11.6707
▁excep	-11.6708
lägg	-11.6709
▁স্বা	-11.6711
▁രാജ	-11.6712
▁Пет	-11.6712
▁все	-11.6713
plaats	-11.6713
▁spirit	-11.6713
లై	-11.6714
▁చేస్త	-11.6714
ላት	-11.6716
▁connect	-11.6718
▁سین	-11.6718
ର୍ଥ	-11.6719
нуть	-11.6719
▁дума	-11.6719
▁osnov	-11.6719
▁soovi	-11.672
ýär	-11.672
ိုက်	-11.6721
ţă	-11.6725
▁کام	-11.6726
gerð	-11.6726
▁Apart	-11.6728
▁sklad	-11.6733
ított	-11.6734
▁poseb	-11.6734
සම්	-11.6737
ಸೆ	-11.6737
▁ÑrÑ	-11.6738
▁recib	-11.6739
மதி	-11.6741
▁estima	-11.6741
ۈزۈ	-11.6741
▁توان	-11.6741
▁hvor	-11.6741
మో	-11.6742
▁ساز	-11.6743
▁പാ	-11.6745
▁server	-11.6747
רוח	-11.6749
حمد	-11.6749
UE	-11.675
▁хран	-11.6753
czas	-11.6753
ોજ	-11.6754
ọwọ	-11.6755
▁dhu	-11.6755
▁azal	-11.6757
oyink	-11.6762
▁چل	-11.6763
লাম	-11.6764
בער	-11.6765
▁прекра	-11.6769
▁icy	-11.677
▁mante	-11.6774
▁пеш	-11.6774
્મ	-11.6777
ଧ୍ୟ	-11.6777
რჩე	-11.6777
▁Gall	-11.6778
▁zosta	-11.678
כס	-11.678
əsə	-11.6781
khale	-11.6783
फल	-11.6785
GI	-11.6788
tical	-11.6793
κου	-11.6796
ట్టి	-11.6798
лэх	-11.6799
ନ୍ତୁ	-11.68
чить	-11.68
▁ਇੰ	-11.68
ვიდ	-11.6803
bhair	-11.6803
▁tarih	-11.6804
ວ່າ	-11.6809
▁resist	-11.6811
ങ്ങി	-11.6811
பட்ட	-11.6811
▁заяв	-11.6812
قرار	-11.6814
LC	-11.6814
ྲུ	-11.6815
lsk	-11.6815
▁печ	-11.6817
▁comment	-11.682
▁prostor	-11.6824
сез	-11.6826
▁quart	-11.6834
▁ചെ	-11.6835
трыма	-11.6844
▁два	-11.6845
γιο	-11.6845
দী	-11.6847
vention	-11.6854
خوان	-11.6857
гуул	-11.6858
▁செல்	-11.6864
ਿੰ	-11.6868
▁فرم	-11.6868
sioon	-11.687
энэ	-11.6873
marin	-11.6875
kuqal	-11.6878
ੜੀ	-11.6883
zeug	-11.6884
साह	-11.6885
ਗੇ	-11.6894
ಡಿಯ	-11.6895
▁घर	-11.6896
ବର	-11.6897
நகர	-11.6898
ੜ੍ਹ	-11.6898
ходить	-11.6899
ନ୍ଧ	-11.6901
насц	-11.6903
شرك	-11.6903
▁käyttä	-11.6904
ெட்	-11.6905
▁yek	-11.6906
▁פאַ	-11.6907
ועד	-11.6909
რად	-11.6911
ිරි	-11.6914
ајте	-11.6919
ommen	-11.6932
يدىغان	-11.6935
▁ଯା	-11.6935
▁show	-11.6946
▁gleda	-11.6946
ferð	-11.695
hús	-11.6954
ğin	-11.6954
ίνα	-11.6955
صار	-11.6956
▁tarif	-11.6957
યેલ	-11.6957
ಾಯಿ	-11.6962
пут	-11.6968
ាច	-11.6968
▁производ	-11.6968
చ్చి	-11.697
ેડ	-11.6971
ственно	-11.6975
ባት	-11.6981
▁иск	-11.6984
▁modifica	-11.6987
ন্ত্র	-11.6988
▁фо	-11.6991
کٹ	-11.6993
▁Shar	-11.6994
ොත්	-11.6994
គ្	-11.6996
व्हा	-11.7003
ראי	-11.7005
▁jedin	-11.701
ročn	-11.7012
▁پل	-11.7015
ਕਤ	-11.7018
ੰਨ	-11.7019
נוע	-11.7021
טבע	-11.7024
ৃতি	-11.7028
త్రి	-11.7034
▁يىل	-11.7037
ન્સ	-11.704
PK	-11.7045
▁қала	-11.7048
იანი	-11.705
חוק	-11.7051
▁treg	-11.7052
ર્ક	-11.7056
KI	-11.7057
PU	-11.7062
vond	-11.7063
▁ferm	-11.7064
afia	-11.7068
ડો	-11.707
ρεί	-11.7071
pravlja	-11.7077
▁lég	-11.7077
өгө	-11.7079
▁три	-11.7091
▁nerv	-11.7092
ਜਨ	-11.7094
▁нэг	-11.7094
μον	-11.7096
▁мус	-11.7097
േഷ	-11.7099
Book	-11.7099
τήσει	-11.7102
енә	-11.7103
▁selv	-11.7106
ికి	-11.7106
▁ствар	-11.7106
ರಾಜ	-11.7107
▁Бел	-11.7109
زاد	-11.7112
DV	-11.7113
▁Qual	-11.7117
▁વધ	-11.7123
▁வாழ	-11.7123
faran	-11.7128
▁إل	-11.7129
▁restaur	-11.7131
öyle	-11.7131
əsində	-11.7136
ター	-11.7141
▁орта	-11.7146
▁tead	-11.7157
ଗତ	-11.7167
ધ્ય	-11.7169
400	-11.7169
ందుకు	-11.7172
indra	-11.7178
ória	-11.7179
SON	-11.7179
RL	-11.7184
ੇਟ	-11.7189
টো	-11.7192
ንድ	-11.7194
ানি	-11.7201
▁алу	-11.7205
emand	-11.7206
▁gob	-11.7208
ച്ചു	-11.7209
suit	-11.721
▁баг	-11.7213
െന്ന	-11.7214
▁kolor	-11.7216
▁таш	-11.7217
անել	-11.7221
పించ	-11.7222
ଳା	-11.7226
NU	-11.7227
▁fals	-11.7228
▁पू	-11.7243
GS	-11.725
ould	-11.725
ىمى	-11.7251
վոր	-11.7257
▁Мен	-11.7258
नगर	-11.7259
▁хур	-11.7261
ெல்ல	-11.7261
ปี	-11.7265
▁дъ	-11.7274
▁уст	-11.7277
َّا	-11.7278
מדינ	-11.7284
FS	-11.7286
KE	-11.7288
roep	-11.7289
▁انگ	-11.7291
▁कह	-11.7292
もの	-11.7293
radnj	-11.7293
דול	-11.7297
▁програм	-11.7299
ुद्ध	-11.7302
ಚ್	-11.7304
پرس	-11.7306
IX	-11.7308
ಪ್ಪ	-11.7314
স্থ	-11.7321
ত্ব	-11.7329
ышты	-11.7332
നേ	-11.7332
ග්	-11.7333
nnon	-11.7337
நிலை	-11.7337
▁స్వ	-11.7344
ireacht	-11.7344
jām	-11.7348
ੋਟ	-11.735
block	-11.7352
യ്ക്ക	-11.7356
பெற	-11.7359
χου	-11.736
ገር	-11.7365
ഗ്	-11.737
περ	-11.737
ੀਆ	-11.7377
ቸ	-11.7379
▁kenn	-11.7379
ARA	-11.7381
يران	-11.7394
▁וכ	-11.7399
ಂಡ್	-11.7399
▁Кар	-11.7403
्ती	-11.7405
▁бага	-11.7411
oodi	-11.7415
▁gast	-11.7418
ugg	-11.7419
▁උප	-11.742
▁настоящ	-11.7422
▁respect	-11.7422
ნობი	-11.7422
ુક	-11.7422
▁desp	-11.7422
બર	-11.7424
ключени	-11.7424
え	-11.7433
כלי	-11.7437
בלי	-11.7441
નિક	-11.7441
ગર	-11.7443
czk	-11.7443
frica	-11.7443
▁Gol	-11.7445
ybės	-11.7446
டர்	-11.7447
▁সম্	-11.7449
⁄	-11.745
ಳ್ಳ	-11.745
ภ	-11.745
▁ಹೇಳ	-11.745
Տ	-11.745
각	-11.745
Ï	-11.745
Φ	-11.745
Ѕ	-11.745
Й	-11.745
դեպ	-11.745
ժամանակ	-11.745
ڭىز	-11.745
۳	-11.745
৪	-11.745
୍ଣ୍ଣ	-11.745
ಐ	-11.745
ಠ	-11.745
ဉ	-11.745
ሂ	-11.745
ፖ	-11.745
▁температур	-11.745
▁սահման	-11.745
▁ଅନୁ	-11.745
▁சொல்	-11.745
▁ప్రారంభ	-11.745
サイト	-11.745
ポ	-11.745
ミ	-11.745
ワ	-11.745
같	-11.745
규	-11.745
너	-11.745
네	-11.745
노	-11.745
담	-11.745
산	-11.745
워	-11.745
증	-11.745
초	-11.745
향	-11.745
kvæm	-11.745
ϊ	-11.745
पासून	-11.745
ཇ	-11.745
နိုင်ငံ	-11.745
ጤ	-11.745
ឯ	-11.745
▁sjálf	-11.745
▁возмож	-11.745
▁жағдай	-11.745
▁результат	-11.745
▁అధికార	-11.745
▁선택	-11.745
송	-11.745
움	-11.745
좋	-11.745
nější	-11.745
Ά	-11.745
▁ადგილ	-11.745
▁tapahtu	-11.745
▁それ	-11.745
ጊዜ	-11.745
جتماع	-11.745
ပြော	-11.745
▁контрол	-11.745
▁확인	-11.745
prijatelj	-11.745
ජීව	-11.745
▁njihov	-11.745
▁interpreta	-11.745
▁домашн	-11.745
▁խաղ	-11.745
▁concentra	-11.745
▁števil	-11.745
▁држав	-11.745
ظاهر	-11.745
ື່ອ	-11.745
▁njegov	-11.745
ույթ	-11.745
▁exerci	-11.745
▁хүс	-11.745
لۈك	-11.745
ಚಿತ್ರ	-11.7451
▁नेपाल	-11.7451
▁하나	-11.7451
▁Франц	-11.7451
▁válasz	-11.7451
पूर्ण	-11.7451
▁priekš	-11.7451
▁ରହି	-11.7451
मंत्र	-11.7451
▁veľk	-11.7451
র্ড	-11.7451
▁Kontakt	-11.7451
あります	-11.7451
▁satisf	-11.7451
غۇچى	-11.7451
▁முன்ன	-11.7451
▁அரச	-11.7451
എ	-11.7451
▁கரு	-11.7451
ាស់	-11.7451
fahren	-11.7451
▁труд	-11.7451
▁conserva	-11.7451
▁olduğu	-11.7451
သို့	-11.7451
▁ಬೆಳ	-11.7451
ധ്യ	-11.7451
▁дерев	-11.7451
▁Друг	-11.7452
▁progres	-11.7452
▁ಅನು	-11.7452
▁кызмат	-11.7452
aidhean	-11.7452
ੱਧ	-11.7452
▁проект	-11.7452
وجود	-11.7452
လို့	-11.7452
ждане	-11.7452
▁эшлә	-11.7452
▁նշ	-11.7452
▁ଆସି	-11.7452
ရှ	-11.7452
ывают	-11.7452
stöðu	-11.7452
▁সম্প	-11.7453
레이	-11.7453
خصص	-11.7453
ລະ	-11.7453
ົງ	-11.7453
▁என்ற	-11.7453
▁написа	-11.7453
نظم	-11.7453
▁implement	-11.7453
ուղ	-11.7453
▁তো	-11.7453
ใน	-11.7453
▁ગુ	-11.7453
▁combina	-11.7454
ଦେଶ	-11.7454
▁orienta	-11.7454
▁aurre	-11.7454
meklē	-11.7454
្ច	-11.7454
▁pateik	-11.7455
▁ਪੈ	-11.7455
▁içeri	-11.7455
ុស	-11.7455
zeichn	-11.7455
▁profesi	-11.7455
ත්වය	-11.7455
▁göster	-11.7456
قطع	-11.7456
▁получи	-11.7456
ូល	-11.7456
▁व्यक्	-11.7456
ұл	-11.7456
ակից	-11.7456
▁любим	-11.7456
möglich	-11.7456
شناس	-11.7456
ůvod	-11.7456
फ़	-11.7457
حدث	-11.7457
ಬಂದಿ	-11.7457
ôvod	-11.7457
▁Über	-11.7458
เท	-11.7458
θεση	-11.7458
өрдү	-11.7458
하지	-11.7458
دعو	-11.7458
ഴ്	-11.7458
▁котор	-11.7459
▁idő	-11.7459
เว	-11.7459
עובד	-11.746
ଟେ	-11.7461
վող	-11.7461
▁Federa	-11.7461
ρίζε	-11.7462
বী	-11.7463
ಶಿ	-11.7463
▁год	-11.7463
ድረ	-11.7463
עוד	-11.7464
জান	-11.7464
▁növ	-11.7465
▁alternativ	-11.7465
wierdz	-11.7465
▁причин	-11.7465
وقف	-11.7466
▁ਜਾਣ	-11.7466
▁ülke	-11.7466
▁një	-11.7466
ക്കെ	-11.7467
ಗೂ	-11.7467
TF	-11.7468
▁Filip	-11.7468
▁दिस	-11.7469
ተር	-11.747
ೀಯ	-11.7472
ванне	-11.7473
үндө	-11.7473
▁secret	-11.7473
isiún	-11.7473
ව්	-11.7474
réal	-11.7475
යින්	-11.7478
ਕਾਂ	-11.7478
▁информаци	-11.7478
▁represent	-11.7479
▁acord	-11.748
▁bildir	-11.7481
פעיל	-11.7482
▁ƙar	-11.7483
んで	-11.7484
bahagi	-11.7484
ständig	-11.7486
ائع	-11.7486
▁місц	-11.7486
مثل	-11.7487
▁ekip	-11.7487
▁Free	-11.7488
сылк	-11.749
گفت	-11.7491
BR	-11.7491
bejde	-11.7492
ávk	-11.7492
štaj	-11.7493
▁zapis	-11.7493
▁hlut	-11.7494
▁Studi	-11.7495
▁tööta	-11.7495
▁correspond	-11.7496
phath	-11.7496
dhur	-11.7496
पत्र	-11.7496
മേ	-11.7497
▁କରାଯ	-11.7497
TION	-11.7497
ോള	-11.7498
ਬੀ	-11.7499
applika	-11.75
▁қай	-11.7501
▁держав	-11.7504
ÑÑÑé	-11.7505
ømme	-11.7506
כלל	-11.751
▁വെ	-11.7512
ësish	-11.7514
います	-11.7515
▁स्प	-11.7516
▁televis	-11.7517
▁inicia	-11.7518
qubo	-11.752
▁ठर	-11.7521
ଳି	-11.7521
കാല	-11.7522
kutanga	-11.7525
landela	-11.7527
чатк	-11.7529
▁familia	-11.7529
▁Model	-11.7531
FP	-11.7536
ኖች	-11.7541
HC	-11.7542
ئىي	-11.7543
▁oseb	-11.7543
ناسب	-11.7545
кільк	-11.7545
maður	-11.7549
न्त्र	-11.7551
▁responsabil	-11.7551
FF	-11.7553
MM	-11.7555
hasil	-11.7563
▁ខែ	-11.7565
ования	-11.7567
▁escrit	-11.7569
▁síð	-11.7569
▁इन	-11.7569
तरी	-11.757
▁specific	-11.7571
रूप	-11.7572
צד	-11.7572
▁vesel	-11.7573
▁brz	-11.7575
ქტ	-11.7575
bril	-11.7578
▁компания	-11.7583
▁navig	-11.7585
▁روا	-11.7591
▁ਸਕ	-11.7593
▁dekor	-11.7596
cház	-11.7596
عيد	-11.7599
સ્પ	-11.76
▁skupin	-11.7601
ടുക്ക	-11.7601
കര്	-11.7602
ьск	-11.7603
्शन	-11.7604
بور	-11.7606
▁اسک	-11.7607
titude	-11.7608
फी	-11.7609
▁кыл	-11.7613
▁etap	-11.7616
ുകയ	-11.7616
ਵਾਲ	-11.7621
ക്കാര	-11.7624
хід	-11.7624
UI	-11.763
шать	-11.7631
డీ	-11.7631
υση	-11.7635
▁кір	-11.7637
curso	-11.7637
قيم	-11.7637
▁estiv	-11.7642
DN	-11.7645
ītāj	-11.7647
щего	-11.7649
▁List	-11.7651
▁Patri	-11.7655
рәк	-11.7656
უმ	-11.7657
ଠି	-11.7659
▁risk	-11.766
▁delta	-11.7662
▁Им	-11.7662
DF	-11.7664
▁aprend	-11.7669
ION	-11.7678
▁қол	-11.768
fuz	-11.7684
वेळ	-11.7685
படி	-11.7693
ndring	-11.7693
казать	-11.7701
▁flor	-11.7701
▁ಪಾ	-11.7701
stock	-11.7701
ілді	-11.7707
ର୍କ	-11.7709
では	-11.7709
▁škol	-11.7713
רטי	-11.7717
כתב	-11.7717
дошт	-11.7723
▁нис	-11.7723
เอ	-11.7726
▁الصح	-11.7726
યોગ	-11.7727
▁αυτ	-11.773
▁лист	-11.7737
▁кир	-11.774
âÑ	-11.7744
▁korist	-11.7747
பாட்ட	-11.775
▁тво	-11.7751
γει	-11.7752
▁ubw	-11.7753
cription	-11.7754
▁अधि	-11.7756
▁жас	-11.7756
īšan	-11.7761
βου	-11.7765
▁бұ	-11.7767
ühl	-11.7767
BB	-11.7767
▁সন্	-11.7774
▁ସାମ	-11.7778
ẹẹ	-11.778
வரி	-11.7781
▁հաս	-11.779
ෂණය	-11.7796
ິນ	-11.7805
ಟ್ಟು	-11.7807
trice	-11.7809
ическо	-11.781
▁עלי	-11.781
дженн	-11.781
ẹ́	-11.7811
כבי	-11.7813
៉ា	-11.7814
ುದು	-11.7815
تاج	-11.7819
▁പ്രതി	-11.7819
ואי	-11.7821
ඩි	-11.7821
bouw	-11.7825
ెయి	-11.783
▁گرد	-11.7834
ഗ്ര	-11.7836
▁čist	-11.7837
▁facil	-11.784
▁реч	-11.7841
▁ಸ್ವ	-11.7845
كال	-11.7854
▁Stand	-11.7858
PH	-11.7861
nkha	-11.7861
ହାର	-11.7862
بعد	-11.7863
ସ୍ଥା	-11.7865
বেশ	-11.7866
▁الاست	-11.787
▁पर्	-11.7871
एम	-11.7871
▁biologi	-11.7872
ాము	-11.7873
ುತ್ತಾ	-11.7878
θέτ	-11.7879
িং	-11.7879
▁тест	-11.7879
▁آئ	-11.7884
▁هي	-11.7885
فال	-11.7885
▁ҳам	-11.7888
▁amin	-11.7891
ھال	-11.7891
▁көз	-11.7893
▁таны	-11.7901
▁Jack	-11.7902
ગી	-11.791
OG	-11.7911
AX	-11.7913
رأ	-11.7918
றிய	-11.7918
ತನ	-11.7918
▁вес	-11.7925
▁सुर	-11.7927
ย์	-11.7931
▁баста	-11.7933
bliž	-11.7938
ಚಾರ	-11.7939
▁پای	-11.794
▁facilit	-11.7946
גש	-11.7949
▁Chin	-11.795
ଭି	-11.7954
▁praktik	-11.7955
شكل	-11.7955
ফা	-11.7956
інші	-11.7957
AO	-11.7958
ινή	-11.7963
▁கே	-11.7964
بند	-11.7973
ொரு	-11.7974
цэн	-11.7976
රිය	-11.7977
▁кој	-11.7984
▁дара	-11.7985
கர்	-11.7987
zional	-11.7989
öð	-11.7992
കാര്യ	-11.7993
अल	-11.7994
▁වෙන	-11.7995
▁reprodu	-11.7996
▁напр	-11.7997
▁полож	-11.7998
שלי	-11.7998
זכו	-11.7999
ိုး	-11.8
ADA	-11.8007
دىغان	-11.801
طاق	-11.8014
▁tamba	-11.8014
EU	-11.8016
OB	-11.8016
▁අප	-11.8017
ämä	-11.8017
ल्ड	-11.8025
▁સમા	-11.8026
ांस	-11.8031
হত	-11.8035
▁lleg	-11.8041
చుకు	-11.8047
ирање	-11.8047
וצר	-11.8049
ତେ	-11.805
дател	-11.8062
ሰራ	-11.8063
script	-11.8065
្សា	-11.8071
600	-11.808
ტიკ	-11.8093
çû	-11.8094
תחיל	-11.8106
ସନ୍	-11.8106
▁dollar	-11.8111
עמד	-11.8125
ભર	-11.813
ાવી	-11.8137
מיני	-11.8138
חלו	-11.8148
▁180	-11.8153
جمل	-11.8154
מטר	-11.8154
ایل	-11.8156
ଡ଼ି	-11.8156
býv	-11.8157
resulta	-11.8158
▁econom	-11.8159
קול	-11.8162
ત્વ	-11.8165
יחס	-11.8167
झा	-11.817
ಏ	-11.8173
្អ	-11.819
ಪಟ್ಟ	-11.8193
▁ਕੋ	-11.8196
પણ	-11.8204
အခ	-11.8205
дома	-11.8216
ート	-11.822
រដ្ឋ	-11.8223
▁elekt	-11.8227
ཕ	-11.823
కుంట	-11.8232
ۈز	-11.8232
UP	-11.8244
ıştır	-11.8254
ємо	-11.826
பை	-11.826
▁leit	-11.8272
OV	-11.8274
Έ	-11.8275
మాణ	-11.8282
ዙ	-11.8282
グ	-11.8283
களுக்கு	-11.8283
়	-11.8283
ম্প	-11.8283
ञ	-11.8283
태	-11.8284
법	-11.8284
Խ	-11.8284
ույց	-11.8284
औ	-11.8284
মূল	-11.8284
ఐ	-11.8284
ಮುಖ	-11.8284
ഞ	-11.8284
နှစ်	-11.8284
▁gospodar	-11.8284
▁конкрет	-11.8284
커	-11.8284
토	-11.8284
판	-11.8284
Ã	-11.8284
ʼ	-11.8284
̄	-11.8284
џ	-11.8284
বন্ধ	-11.8284
৯	-11.8284
৷	-11.8284
ਢ	-11.8284
ବେଳେ	-11.8284
ಈ	-11.8284
ຣ	-11.8284
ဏ	-11.8284
ጌ	-11.8284
ፉ	-11.8284
ន្ធ	-11.8284
▁alkalmaz	-11.8284
▁benefici	-11.8284
▁employ	-11.8284
▁proizvod	-11.8284
▁χρησιμοποι	-11.8284
▁автомат	-11.8284
▁маленьк	-11.8284
▁профессионал	-11.8284
▁публик	-11.8284
▁пункт	-11.8284
▁транспорт	-11.8284
▁विश्व	-11.8284
▁நிறுவன	-11.8284
▁తెలి	-11.8284
ェ	-11.8284
ダ	-11.8284
독	-11.8284
량	-11.8284
박	-11.8284
별	-11.8284
손	-11.8284
완	-11.8284
평	-11.8284
päivä	-11.8284
Æ	-11.8284
ఛ	-11.8284
chließ	-11.8284
▁simptom	-11.8284
▁ситуаци	-11.8284
という	-11.8284
ਉਂਦ	-11.8284
ଷ୍ଠ	-11.8284
▁exclusiv	-11.8284
område	-11.8284
▁futbol	-11.8284
▁регион	-11.8284
ショ	-11.8284
▁bölge	-11.8284
▁Institut	-11.8284
▁candidat	-11.8284
రోజు	-11.8284
družen	-11.8284
μορφ	-11.8284
możliw	-11.8284
▁കാണ	-11.8284
ております	-11.8284
▁palvelu	-11.8284
▁festival	-11.8284
▁segít	-11.8284
▁შესა	-11.8284
ყვან	-11.8284
▁услови	-11.8284
ုပ်	-11.8284
▁değiş	-11.8284
▁организаци	-11.8284
ਨੂੰ	-11.8284
▁ಹೊಂದಿ	-11.8284
ੱਛ	-11.8284
ഴ്ച	-11.8284
▁રહે	-11.8284
▁pokuša	-11.8284
▁എന്ത	-11.8284
▁argument	-11.8284
▁disponibil	-11.8284
▁текст	-11.8284
ング	-11.8284
▁spécia	-11.8284
ेंद्र	-11.8284
▁elabora	-11.8284
▁uveden	-11.8284
χρον	-11.8284
▁Wood	-11.8284
▁រប	-11.8284
▁մեկ	-11.8284
▁parlament	-11.8285
zahl	-11.8285
جامع	-11.8285
ਸਥਾ	-11.8285
▁gratuit	-11.8285
▁அவர்கள	-11.8285
▁արտա	-11.8285
▁зелен	-11.8285
▁страх	-11.8285
ினார்	-11.8285
▁Elektr	-11.8285
▁získa	-11.8285
งาน	-11.8285
より	-11.8285
ড়িয়ে	-11.8285
ેશન	-11.8285
▁граждан	-11.8285
ู้	-11.8285
קבוצ	-11.8285
▁детск	-11.8285
δρομ	-11.8285
▁श्री	-11.8285
ΙΑ	-11.8285
ದ್ಧ	-11.8285
▁použit	-11.8285
▁pagrind	-11.8286
प्प	-11.8286
ラン	-11.8286
ట్టు	-11.8286
ላቸው	-11.8286
▁сдела	-11.8286
pełni	-11.8286
שתמש	-11.8286
▁համա	-11.8286
้ง	-11.8287
ფერი	-11.8287
▁ያስ	-11.8287
▁товар	-11.8287
▁parametr	-11.8287
▁откри	-11.8287
▁побед	-11.8287
іңіз	-11.8287
▁Direkt	-11.8287
하면	-11.8287
חדש	-11.8287
فعال	-11.8287
ඩ්	-11.8287
▁பணி	-11.8287
ότητ	-11.8288
▁بېرى	-11.8288
ೇಶ್	-11.8288
ಂಟ್	-11.8288
tsiooni	-11.8288
עבוד	-11.8288
▁določ	-11.8288
ផ្ទ	-11.8289
ेयर	-11.8289
ಾಗುತ್ತ	-11.8289
▁बदल	-11.8289
▁anunci	-11.8289
▁хүн	-11.8289
ኖር	-11.8289
▁наступн	-11.8289
▁иште	-11.829
▁aktual	-11.829
▁nib	-11.829
ирует	-11.8291
вакыт	-11.8291
▁pregled	-11.8291
▁машин	-11.8291
কারী	-11.8291
သမ	-11.8291
▁орында	-11.8291
তিয়া	-11.8291
صدر	-11.8291
▁karşı	-11.8292
դիր	-11.8292
ิง	-11.8292
ወቅ	-11.8292
ARD	-11.8292
ম্ব	-11.8292
करी	-11.8292
▁positiv	-11.8292
คม	-11.8293
▁تۈر	-11.8293
▁qism	-11.8293
പ്പോ	-11.8294
▁excl	-11.8295
xistin	-11.8295
라이	-11.8295
وسط	-11.8296
గే	-11.8296
▁object	-11.8296
▁ಹೆ	-11.8296
బర్	-11.8297
változ	-11.8297
ላይ	-11.8297
োনা	-11.8298
ግራ	-11.8299
▁biznes	-11.8299
▁намер	-11.83
▁ఒక	-11.83
ంపు	-11.83
سلط	-11.8301
▁fundament	-11.8301
رئيس	-11.8302
تعليم	-11.8302
▁suppl	-11.8302
▁organism	-11.8302
ስራ	-11.8302
▁ભાગ	-11.8302
kampani	-11.8304
úchá	-11.8305
▁kişi	-11.8305
duğu	-11.8306
▁second	-11.8306
ոմ	-11.8307
▁Internet	-11.8307
գտ	-11.8307
▁કાર્ય	-11.8308
ጥር	-11.8308
▁kutsu	-11.8308
▁komunit	-11.8309
▁Pirm	-11.8309
▁yük	-11.8309
grein	-11.8309
onyesh	-11.831
மக்கள	-11.8311
آمد	-11.8311
▁prirod	-11.8311
ቀር	-11.8311
струкци	-11.8312
gambar	-11.8315
devum	-11.8315
▁Arabi	-11.8317
راك	-11.8318
▁ਮਿਲ	-11.8319
ఎస్	-11.832
▁Grup	-11.8321
దేశాల	-11.8321
ીય	-11.8322
brauch	-11.8322
▁simila	-11.8323
ображен	-11.8324
▁vand	-11.8324
▁practic	-11.8325
▁korisn	-11.8326
கொள்ள	-11.8326
▁podpor	-11.8326
▁attend	-11.8326
▁Belgi	-11.8327
ratidz	-11.8327
▁Бал	-11.8328
ційн	-11.8329
lekile	-11.8329
▁мисл	-11.833
väär	-11.833
child	-11.833
jeća	-11.8332
▁qilish	-11.8332
ĵ	-11.8333
▁سیا	-11.8334
▁сильн	-11.8334
▁custo	-11.8335
▁tunne	-11.8336
▁кеше	-11.8337
▁instrument	-11.8339
▁isola	-11.834
▁vrst	-11.8341
විට	-11.8345
▁vzor	-11.8346
▁erabil	-11.8346
▁yarat	-11.8347
רצו	-11.8348
nsä	-11.8348
▁Afrik	-11.8349
რჩევ	-11.8358
▁teori	-11.8359
แล	-11.8362
▁иска	-11.8362
VER	-11.8363
▁artı	-11.8363
John	-11.8364
ેન્ટ	-11.8367
আ	-11.8369
▁перв	-11.8369
▁ਲਾ	-11.837
▁Invest	-11.8374
واجه	-11.838
▁koleg	-11.8382
▁اعت	-11.8384
▁бид	-11.8385
▁উদ্	-11.8385
▁лучш	-11.8386
όσο	-11.8393
narodn	-11.8394
круг	-11.8395
ବ୍ୟ	-11.8396
ņā	-11.8396
මැති	-11.84
800	-11.8405
نګ	-11.8406
dividi	-11.8407
بیا	-11.841
ଡ଼	-11.8413
▁licenc	-11.8413
▁għand	-11.8414
נטי	-11.8416
ัด	-11.8417
גיל	-11.842
▁मार	-11.8425
ករ	-11.8428
льнік	-11.8428
pracova	-11.8429
▁variant	-11.8432
▁principal	-11.8432
ნგ	-11.8433
шэнн	-11.8434
സമ	-11.8435
bwino	-11.8439
огаш	-11.8443
జన	-11.8451
كتب	-11.8463
طرف	-11.8464
▁Austr	-11.8474
ساعد	-11.8475
าร์	-11.8475
jazd	-11.8479
▁Angel	-11.8481
▁фар	-11.8482
▁трав	-11.8482
ysay	-11.8484
▁stig	-11.8486
▁original	-11.8487
درج	-11.8488
lacak	-11.8489
beeld	-11.8489
▁pint	-11.849
ként	-11.8495
▁Band	-11.8499
סרט	-11.8501
iyyə	-11.8502
▁cest	-11.8504
ěř	-11.8507
כח	-11.8509
धारण	-11.851
ಿದ್ದರ	-11.8513
GH	-11.8515
▁pewn	-11.8517
ించడం	-11.852
ാക്കി	-11.8521
ଜନ	-11.8523
ılma	-11.8527
ਆ	-11.8527
วั	-11.8528
▁сап	-11.8528
BP	-11.8534
▁בעי	-11.8539
أخ	-11.8542
изаци	-11.8542
izacj	-11.8548
▁dolor	-11.8548
ongoz	-11.8552
تمام	-11.8559
ampak	-11.856
▁זא	-11.8564
צג	-11.8567
uyệ	-11.8573
▁vepr	-11.8574
רכב	-11.8576
reibe	-11.8577
▁դա	-11.8579
▁активн	-11.858
යාව	-11.858
▁́É	-11.8582
▁низ	-11.8582
▁भन	-11.8584
ின்றன	-11.8589
tjór	-11.859
ologica	-11.8593
ектор	-11.8597
▁فرو	-11.8599
דיר	-11.86
ққа	-11.8602
ference	-11.8604
▁futur	-11.8606
യങ്ങള	-11.8607
▁käi	-11.8609
әү	-11.8614
▁txi	-11.8615
▁וויי	-11.8615
lagay	-11.8616
płat	-11.8617
▁Ла	-11.8622
முக	-11.8623
▁Test	-11.8624
יפור	-11.8627
indre	-11.8637
временно	-11.865
▁લો	-11.8651
LP	-11.8656
▁nauj	-11.8663
landı	-11.8665
க்கப்பட்ட	-11.8666
סיו	-11.868
▁کلی	-11.8694
FR	-11.8695
wiedz	-11.8699
נסי	-11.87
▁ಸಹ	-11.8701
minat	-11.8703
կայի	-11.8709
funik	-11.8715
צפו	-11.8715
ਇਕ	-11.8715
MG	-11.8717
ຍາ	-11.8723
wrth	-11.8728
әргә	-11.8733
▁ചെയ്യ	-11.8739
عالم	-11.8741
bhail	-11.8745
▁रख	-11.8747
yyət	-11.8747
lanı	-11.875
ികള	-11.8754
ποτε	-11.8756
బడ	-11.876
əbə	-11.8763
ausiai	-11.8763
šavanj	-11.8766
ജന	-11.8768
▁galv	-11.8773
WO	-11.8779
nggung	-11.8782
عداد	-11.8786
▁jug	-11.8792
ಿಸುತ್ತ	-11.8792
സര	-11.8795
цијалн	-11.8797
عمال	-11.881
ុត	-11.8811
▁Αν	-11.8812
▁fatt	-11.8813
▁મળ	-11.8813
נער	-11.8819
ലോ	-11.8823
supra	-11.8826
czesn	-11.8826
ESS	-11.8826
skrive	-11.8831
дзіц	-11.8836
દાર	-11.8848
ഴു	-11.885
TL	-11.8852
ყავ	-11.8853
grep	-11.8853
ీయ	-11.8856
ອບ	-11.8862
▁Produkt	-11.8866
▁κρ	-11.8868
ങ്ങളില	-11.8871
curuz	-11.8877
ோர்	-11.8879
කම්	-11.888
KP	-11.8885
υτικ	-11.8893
େଟ୍	-11.8894
बाट	-11.8894
ۇرۇپ	-11.8895
बाद	-11.8902
shush	-11.8906
נוס	-11.8906
угу	-11.8915
▁техник	-11.8915
▁Euro	-11.8919
হার	-11.8923
▁Рад	-11.8924
имост	-11.8928
รับ	-11.8933
ീവ	-11.8935
ുണ്ട	-11.8942
ार्थ	-11.8946
ង្គ	-11.8949
າກ	-11.8951
ඩා	-11.8954
DB	-11.8956
මාන	-11.8962
বাহ	-11.897
رسان	-11.8977
ยา	-11.8978
ରିକ	-11.8983
فعل	-11.8984
حرك	-11.899
اڻ	-11.9012
▁отыр	-11.9013
GP	-11.9013
үнө	-11.9014
स्त्र	-11.9016
▁дава	-11.9022
space	-11.9024
யாளர்	-11.9025
बाह	-11.9025
గిన	-11.9025
ন্ড	-11.9031
EV	-11.9034
▁ഇത	-11.9039
ქსი	-11.9039
▁120	-11.9041
भार	-11.9043
▁してい	-11.9051
ತ್ರಿ	-11.9052
ији	-11.9053
ଖା	-11.9059
▁particip	-11.9063
గ్ర	-11.9068
ଧାର	-11.909
ైనా	-11.9091
ಡುತ್ತ	-11.9114
կեր	-11.9124
▁tradic	-11.9133
ապ	-11.9134
▁كۆر	-11.9138
halb	-11.9145
نشر	-11.9147
▁אינ	-11.9149
ിട്ടു	-11.9151
EO	-11.9151
▁даст	-11.9153
ಯಾಗಿ	-11.9153
હાર	-11.9154
ראו	-11.9158
▁identit	-11.9158
▁Кон	-11.9159
▁ज्या	-11.9167
lərdə	-11.9172
▁töö	-11.9176
ೋರ್	-11.9178
الاي	-11.9186
ኔ	-11.919
しょう	-11.9192
ပေါ	-11.9192
ஞ	-11.9193
ঢ	-11.9193
రాష్ట్ర	-11.9193
මාණ	-11.9193
ෆ	-11.9193
ความ	-11.9193
ፓ	-11.9193
ឃ	-11.9193
ឧ	-11.9193
▁Республик	-11.9193
▁ашигла	-11.9193
▁громад	-11.9193
▁единствен	-11.9193
▁огромн	-11.9193
▁телефон	-11.9193
▁քնն	-11.9193
페	-11.9193
βολή	-11.9193
ٰ	-11.9193
ڼ	-11.9193
ছাড়া	-11.9193
জ্ঞা	-11.9193
৭	-11.9193
ક્રમ	-11.9193
ચ્છ	-11.9193
ଗୁଡିକ	-11.9193
ஓ	-11.9193
ஹ	-11.9193
ఓ	-11.9193
ไทย	-11.9193
၈	-11.9193
ሏ	-11.9193
ሷ	-11.9193
ቧ	-11.9193
ዥ	-11.9193
ጂ	-11.9193
ក្នុង	-11.9193
ណ្ឌ	-11.9193
ẽ	-11.9193
▁preocupa	-11.9193
▁автомобил	-11.9193
▁дизайн	-11.9193
▁индивидуал	-11.9193
▁клиент	-11.9193
▁магазин	-11.9193
▁принцип	-11.9193
▁українськ	-11.9193
▁фотограф	-11.9193
▁چۈش	-11.9193
▁વર્ષ	-11.9193
▁உருவாக்க	-11.9193
▁පිළි	-11.9193
▁වැඩි	-11.9193
ザ	-11.9193
ナ	-11.9193
누	-11.9193
던	-11.9193
두	-11.9193
랜	-11.9193
많	-11.9193
백	-11.9193
살	-11.9193
셔	-11.9193
액	-11.9193
족	-11.9193
집	-11.9193
투	-11.9193
sikhathi	-11.9193
дугаар	-11.9193
Ռ	-11.9193
ภาพ	-11.9193
▁apresenta	-11.9193
▁određen	-11.9193
▁ресурс	-11.9193
▁포함	-11.9193
エ	-11.9193
▁тогло	-11.9193
▁समाज	-11.9193
▁සිදුව	-11.9193
▁რომელ	-11.9193
готовлен	-11.9193
មួយ	-11.9193
▁foydalan	-11.9193
▁고객	-11.9193
▁партнер	-11.9193
▁필요	-11.9193
годишн	-11.9193
▁electro	-11.9193
▁рабоч	-11.9193
готовк	-11.9193
▁күрсәт	-11.9193
▁دیکھ	-11.9193
▁ettevõt	-11.9193
▁шығар	-11.9193
▁bezpečn	-11.9193
▁slobod	-11.9193
▁recomenda	-11.9193
▁μικρ	-11.9193
રૂપ	-11.9193
▁exempl	-11.9193
▁procedur	-11.9193
▁ලබා	-11.9193
gestellt	-11.9193
κολουθ	-11.9193
▁označ	-11.9193
▁операци	-11.9193
დღე	-11.9193
▁potřeb	-11.9193
demokrat	-11.9193
▁liitty	-11.9193
▁следующ	-11.9193
ভাগ	-11.9193
ਧਾਰ	-11.9193
▁విజయ	-11.9193
ไม่	-11.9193
▁басқа	-11.9193
állítás	-11.9193
▁Раз	-11.9193
▁пыта	-11.9193
ገኙ	-11.9193
ន្ទ	-11.9193
▁његов	-11.9193
▁Parlament	-11.9193
▁tvrd	-11.9193
▁продукт	-11.9193
▁పొంద	-11.9193
▁sposob	-11.9193
▁свят	-11.9193
αγωγή	-11.9193
hlukene	-11.9193
▁érték	-11.9193
▁वाढ	-11.9193
▁كۈن	-11.9193
လုပ်	-11.9193
▁hodnot	-11.9193
▁қатыс	-11.9193
▁configura	-11.9193
▁shërb	-11.9193
შვილ	-11.9193
موقع	-11.9194
odišnj	-11.9194
νωση	-11.9194
ലീസ	-11.9194
▁zobraz	-11.9194
▁агент	-11.9194
▁relaciona	-11.9194
▁பகுதி	-11.9194
▁różn	-11.9194
နိုင်	-11.9194
ချက်	-11.9194
▁järg	-11.9194
▁nõu	-11.9194
pozycj	-11.9194
মুখ	-11.9194
▁сучасн	-11.9194
▁dostupn	-11.9194
marketing	-11.9194
لانغان	-11.9194
▁направлен	-11.9194
ように	-11.9194
▁Πολ	-11.9194
ология	-11.9194
▁ocupa	-11.9194
ります	-11.9194
どう	-11.9194
ຽນ	-11.9194
▁Совет	-11.9195
gwirits	-11.9195
▁विभाग	-11.9195
▁ମୁ	-11.9195
スト	-11.9195
▁maailm	-11.9195
စား	-11.9195
ţional	-11.9195
くれ	-11.9195
קשור	-11.9195
▁abandon	-11.9195
▁kompeten	-11.9195
ෂ්	-11.9195
schrift	-11.9195
အတွ	-11.9195
▁necesit	-11.9195
▁පරි	-11.9195
េញ	-11.9196
▁защит	-11.9196
▁ജോ	-11.9196
worth	-11.9196
သား	-11.9196
sukces	-11.9196
▁komentar	-11.9196
ົາ	-11.9196
▁Türk	-11.9196
▁platform	-11.9196
この	-11.9196
▁arrange	-11.9197
▁Americ	-11.9197
фикаци	-11.9197
▁අනු	-11.9197
τυπ	-11.9197
▁pokaza	-11.9197
▁خوش	-11.9197
▁මො	-11.9197
પૂર	-11.9197
▁кең	-11.9197
సారి	-11.9197
▁предмет	-11.9198
▁ਮੈ	-11.9198
صفح	-11.9198
ُّ	-11.9198
▁ଅବ	-11.9198
▁Work	-11.9198
ವರೆಗ	-11.9198
▁discuss	-11.9199
▁жител	-11.9199
פתח	-11.9199
▁wysok	-11.9199
▁размер	-11.9199
▁szín	-11.9199
ಸ್ಟ್	-11.9199
ើន	-11.9199
່ນ	-11.9199
спект	-11.9199
▁extern	-11.92
նտր	-11.92
īgā	-11.92
جماع	-11.92
▁būd	-11.92
▁transfer	-11.92
പേര	-11.9201
▁detalj	-11.9201
▁któr	-11.9201
ទៅ	-11.9201
▁സെ	-11.9201
▁മോ	-11.9201
mniej	-11.9201
ଶୀ	-11.9202
▁түз	-11.9202
▁బి	-11.9202
ូន	-11.9202
र्फ	-11.9203
ଶୁ	-11.9204
▁accord	-11.9204
వారి	-11.9205
ลง	-11.9205
▁perfect	-11.9205
gegeven	-11.9205
▁доллар	-11.9205
▁сцен	-11.9206
ப்பை	-11.9206
midler	-11.9207
▁çê	-11.9208
▁tarix	-11.9208
▁mõn	-11.9209
hloko	-11.9209
ቀጥ	-11.921
▁vlas	-11.921
▁utilit	-11.9211
▁inimes	-11.9212
▁draug	-11.9212
▁tiksl	-11.9214
ûnder	-11.9214
घात	-11.9215
▁লাগ	-11.9218
ספק	-11.9218
ಜೆ	-11.9218
μισ	-11.9219
▁touch	-11.922
▁જીવ	-11.922
▁breyt	-11.9221
▁diskus	-11.9221
ստան	-11.9221
పద	-11.9222
▁dnev	-11.9223
नियम	-11.9223
▁Text	-11.9224
▁özün	-11.9225
▁ચાલ	-11.9225
▁нужн	-11.9229
▁kezd	-11.9232
ילו	-11.9233
follow	-11.9233
setzt	-11.9235
غیر	-11.9236
▁jobb	-11.9236
▁rsat	-11.9238
▁राज्य	-11.9239
sniedz	-11.924
▁сложн	-11.9242
▁iliyo	-11.9247
▁znám	-11.9249
▁näyt	-11.9249
▁ngokw	-11.9251
əfər	-11.9252
против	-11.9255
▁prác	-11.9255
רחב	-11.9257
▁ରାଜ	-11.9258
شهد	-11.9258
nāšana	-11.9259
ënner	-11.9261
אחרי	-11.9263
▁profund	-11.9263
▁गरे	-11.9264
▁artikl	-11.9264
▁זײ	-11.9264
jawab	-11.9265
cross	-11.9266
ояд	-11.9269
▁ডা	-11.9271
sensor	-11.9275
▁традиц	-11.9277
▁geliş	-11.9278
MENT	-11.928
▁critic	-11.9282
sætte	-11.9284
fficien	-11.9289
ibilidad	-11.929
graphic	-11.9293
▁causa	-11.9296
▁курс	-11.9297
mennyi	-11.9301
ضرور	-11.9302
▁styl	-11.9303
قاعد	-11.9304
latih	-11.9305
žnj	-11.9305
▁стен	-11.9309
medlem	-11.9315
VP	-11.9321
עבור	-11.9323
▁עצמ	-11.9329
▁દે	-11.9332
▁школ	-11.9335
▁міст	-11.9337
▁тұ	-11.9338
build	-11.9338
ሞች	-11.9342
брать	-11.9344
▁pilot	-11.9345
rbeit	-11.9346
Đ	-11.9348
▁Гор	-11.9352
এ	-11.9352
▁договор	-11.9353
GRA	-11.9356
nzvi	-11.9359
gifte	-11.9363
yumba	-11.9371
ືອ	-11.9374
▁talent	-11.9375
▁программ	-11.9376
▁वे	-11.9378
صيل	-11.9379
▁ihm	-11.9379
▁точн	-11.9381
లిక	-11.9387
▁නොව	-11.9388
▁dë	-11.9389
▁acest	-11.9398
ONE	-11.9399
finde	-11.9401
inneach	-11.9409
▁выход	-11.9414
maydi	-11.9422
ATION	-11.9426
▁piac	-11.9429
ែន	-11.9438
▁установлен	-11.944
jezd	-11.9441
▁funkcj	-11.9447
▁kullanıl	-11.945
▁модел	-11.945
حول	-11.9452
īcij	-11.9452
▁рук	-11.9456
▁αλλ	-11.9463
▁Martin	-11.9463
ੱਸ	-11.9465
្រី	-11.9475
దేశం	-11.9477
OI	-11.9482
έτο	-11.9499
حام	-11.95
nggih	-11.9509
▁продаж	-11.9509
ಯುವ	-11.9511
▁işlə	-11.9513
▁کرو	-11.9514
grond	-11.9523
ríomh	-11.9524
صرف	-11.953
anjur	-11.9532
गरी	-11.9532
▁Polic	-11.9532
▁తీసుకు	-11.9536
ATE	-11.9538
igheter	-11.9546
ื	-11.9562
ಸಲಾಗಿದ	-11.9563
AMA	-11.958
▁મહ	-11.9581
തൊ	-11.9597
agrada	-11.9608
эгдэ	-11.9612
ມາ	-11.9615
ħadd	-11.9616
▁nasc	-11.9617
▁свој	-11.962
▁తర	-11.9634
ിനെ	-11.9646
ómic	-11.9651
▁સહ	-11.9651
リー	-11.9655
▁skip	-11.9658
▁душ	-11.9664
روح	-11.9669
άκι	-11.9683
tíma	-11.9683
ılmış	-11.9684
▁அவர	-11.9686
रुप	-11.9689
শ্র	-11.9692
රික	-11.9707
נשי	-11.9728
▁ସମ୍ପ	-11.973
registre	-11.9737
ડિય	-11.9759
OE	-11.9762
פעל	-11.977
▁теж	-11.9781
▁ಮಾತ	-11.9784
▁किस	-11.98
ദ്ധ	-11.9801
елде	-11.9817
▁башла	-11.983
▁აქ	-11.9839
らない	-11.9841
סור	-11.9845
FL	-11.985
னால்	-11.986
চিত	-11.9865
ستمر	-11.9873
ෂණ	-11.9876
זיק	-11.9885
▁president	-11.9886
ljenj	-11.9892
EMA	-11.9898
ม่	-11.9905
द्द	-11.9906
▁ពិ	-11.9918
వాద	-11.992
សារ	-11.9922
▁Fond	-11.9923
statt	-11.9924
ნელ	-11.9927
ქტორ	-11.9929
நாட்ட	-11.9934
طق	-11.9944
AGE	-11.9945
పూర్	-11.9952
IVE	-11.9956
eşte	-11.9957
ತ್ತಿದ್ದ	-11.9961
ক্স	-11.9966
▁मुला	-11.9967
рхи	-11.9978
צבע	-11.9979
жүүл	-11.9983
పాట	-11.9986
▁κατ	-11.9986
කොට	-11.9993
θει	-12
▁110	-12.0005
ідн	-12.0008
່າງ	-12.0014
ijden	-12.0017
ვიდა	-12.0018
▁Дан	-12.0023
unuz	-12.0045
ואר	-12.0046
lərində	-12.0053
▁170	-12.0054
▁гост	-12.0057
▁160	-12.0064
্ৰী	-12.0071
omputer	-12.0071
▁lisä	-12.0076
▁bamb	-12.0082
देव	-12.0084
онал	-12.0091
ાંત	-12.0094
▁karakter	-12.0096
KK	-12.0099
ละ	-12.0114
▁entend	-12.0117
όνι	-12.0124
ώματ	-12.0127
μενο	-12.0129
ದ್ದರ	-12.013
▁190	-12.0145
▁express	-12.0145
ஸ	-12.0157
있는	-12.016
போல	-12.016
ющий	-12.0162
▁कॉ	-12.0163
ிங்	-12.0168
nsya	-12.0178
▁адам	-12.0182
lichkeit	-12.0186
ѕ	-12.0189
▁соответств	-12.0191
십	-12.0192
ည	-12.0192
▁эффект	-12.0193
ዜ	-12.0193
ጊ	-12.0193
ಬಂಧ	-12.0193
မျိုး	-12.0193
▁использу	-12.0193
▁तपाई	-12.0193
온	-12.0193
함	-12.0193
wnętrzn	-12.0193
zzjonali	-12.0193
Џ	-12.0193
Ҷ	-12.0193
Թ	-12.0193
ֶ	-12.0193
ڀ	-12.0193
۴	-12.0193
۶	-12.0193
मन्त्री	-12.0193
योजना	-12.0193
ষ্ঠ	-12.0193
৬	-12.0193
ுகின்றன	-12.0193
ఈ	-12.0193
ಓ	-12.0193
ಸಾಧ್ಯ	-12.0193
ബന്ധ	-12.0193
ඕ	-12.0193
จาก	-12.0193
สุด	-12.0193
ຟ	-12.0193
ကောင်း	-12.0193
ကြောင့်	-12.0193
ချိန်	-12.0193
ဇ	-12.0193
၅	-12.0193
၉	-12.0193
ኣ	-12.0193
ኳ	-12.0193
៥	-12.0193
ỹ	-12.0193
▁henkilö	-12.0193
▁hrvatsk	-12.0193
▁incorpora	-12.0193
▁põhjus	-12.0193
▁δημιουργ	-12.0193
▁бесплатн	-12.0193
▁використову	-12.0193
▁вопрос	-12.0193
▁дозвол	-12.0193
▁культур	-12.0193
▁международ	-12.0193
▁небольш	-12.0193
▁огранич	-12.0193
▁период	-12.0193
▁президент	-12.0193
▁препарат	-12.0193
▁элемент	-12.0193
▁њихов	-12.0193
▁իրականաց	-12.0193
▁հիվանդ	-12.0193
▁վերջ	-12.0193
▁क्षेत्र	-12.0193
▁२०१	-12.0193
▁২০১	-12.0193
▁સમય	-12.0193
▁எதிர்	-12.0193
▁సినిమా	-12.0193
▁ഇന്ത്യ	-12.0193
▁ചിത്ര	-12.0193
▁පුද්ගල	-12.0193
▁၂၀၁	-12.0193
▁ადამიან	-12.0193
▁២០១	-12.0193
々	-12.0193
ぎ	-12.0193
ピ	-12.0193
랑	-12.0193
런	-12.0193
렇	-12.0193
망	-12.0193
맞	-12.0193
싶	-12.0193
울	-12.0193
접	-12.0193
존	-12.0193
즈	-12.0193
친	-12.0193
패	-12.0193
휴	-12.0193
œ	-12.0193
۸	-12.0193
ध्यक्ष	-12.0193
सँग	-12.0193
ঃ	-12.0193
কিছু	-12.0193
রাষ্ট্র	-12.0193
ૌ	-12.0193
ଯୁକ୍ତ	-12.0193
Ṣ	-12.0193
▁demonstra	-12.0193
▁evropsk	-12.0193
▁külön	-12.0193
▁nepieciešam	-12.0193
▁πρώτ	-12.0193
▁Україн	-12.0193
▁куллан	-12.0193
▁специалист	-12.0193
▁српск	-12.0193
▁ընկեր	-12.0193
▁ئىشلىتى	-12.0193
▁ចំណ	-12.0193
げ	-12.0193
び	-12.0193
럼	-12.0193
였	-12.0193
찾	-12.0193
отношени	-12.0193
ціональн	-12.0193
استخدام	-12.0193
უფლებ	-12.0193
▁Akademi	-12.0193
▁Slovensk	-12.0193
▁gebruik	-12.0193
▁tradicional	-12.0193
▁связ	-12.0193
▁удобн	-12.0193
▁ყველა	-12.0193
▁photograph	-12.0193
▁vairāk	-12.0193
▁ŝanĝ	-12.0193
▁кредит	-12.0193
▁услуг	-12.0193
▁կատար	-12.0193
ঞ্জ	-12.0193
ଦର୍ଶ	-12.0193
▁naudoja	-12.0193
▁potvrd	-12.0193
▁μεγάλ	-12.0193
शासन	-12.0193
▁noteikt	-12.0193
▁мәселе	-12.0193
ණ්ඩ	-12.0193
▁진행	-12.0193
▁używa	-12.0193
▁štát	-12.0193
▁നൽക	-12.0193
গ্রহ	-12.0193
▁vybaven	-12.0193
युक्त	-12.0193
▁отрима	-12.0193
▁өмір	-12.0193
▁رکھ	-12.0193
▁реклам	-12.0193
▁வழக்க	-12.0193
ישראל	-12.0193
▁ďalš	-12.0193
▁અનુ	-12.0193
▁ಹೆಚ್ಚ	-12.0193
▁įvair	-12.0193
מרכז	-12.0193
▁hizmet	-12.0193
▁လူ	-12.0193
▁subjekt	-12.0193
▁кажд	-12.0193
▁пайдал	-12.0193
▁ਲੱਗ	-12.0193
▁উঠ	-12.0193
▁སྒ	-12.0193
ଚ୍ଚ	-12.0193
▁зүйл	-12.0193
▁বিষয়	-12.0193
phakathi	-12.0193
▁байгаа	-12.0193
gjennom	-12.0193
نظام	-12.0193
उँद	-12.0193
▁McC	-12.0193
▁amerikan	-12.0193
▁பெற்ற	-12.0193
ાત્મ	-12.0193
▁първ	-12.0193
▁खोज	-12.0193
▁Aktivit	-12.0193
▁akademi	-12.0193
ċjali	-12.0193
ग्राम	-12.0193
▁வழி	-12.0193
ঙ্ক	-12.0193
ධාන	-12.0193
▁ရက်	-12.0193
▁գիտ	-12.0193
▁아니	-12.0193
▁இணை	-12.0193
dēļ	-12.0193
▁commerci	-12.0193
ທີ່	-12.0193
ثقاف	-12.0193
▁diffic	-12.0193
▁ଅଭି	-12.0193
▁দিয়ে	-12.0193
▁territori	-12.0193
▁Συν	-12.0193
▁бүх	-12.0193
▁ଯେ	-12.0193
▁สี	-12.0193
▁བར	-12.0193
▁több	-12.0193
▁român	-12.0193
▁құрыл	-12.0193
గ్రామ	-12.0193
▁Никол	-12.0194
ໍ່	-12.0194
▁septembr	-12.0194
▁прям	-12.0194
▁ክፍ	-12.0194
မှု	-12.0194
ဝင်	-12.0194
▁நடத்த	-12.0194
▁લેવ	-12.0194
▁symbol	-12.0194
ഖ്യ	-12.0194
▁vysok	-12.0194
▁પ્રતિ	-12.0194
▁podstaw	-12.0194
ِنْ	-12.0194
ብዙ	-12.0194
▁complex	-12.0194
ագիր	-12.0194
క్రమ	-12.0194
بھی	-12.0194
▁kreativ	-12.0195
▁širok	-12.0195
▁କହି	-12.0195
▁хэв	-12.0195
っと	-12.0195
▁предлага	-12.0195
▁potenti	-12.0195
שטעל	-12.0195
стройств	-12.0195
▁संस्था	-12.0195
▁otkri	-12.0195
▁Кол	-12.0195
▁இல்ல	-12.0195
▁военн	-12.0195
▁Madax	-12.0195
shiriki	-12.0195
ழமை	-12.0195
▁പൊ	-12.0195
▁номер	-12.0195
ጉዳ	-12.0195
စု	-12.0196
รถ	-12.0196
వారం	-12.0196
ذهب	-12.0196
ທີ	-12.0196
▁област	-12.0196
▁ciyaar	-12.0196
▁diferenc	-12.0196
▁kerül	-12.0196
гуль	-12.0196
PORT	-12.0196
้าง	-12.0196
▁Regula	-12.0196
صنع	-12.0196
ሪካ	-12.0196
ែរ	-12.0196
▁Australi	-12.0196
ર્મ	-12.0196
Рѕ	-12.0197
▁ответ	-12.0197
▁labāk	-12.0197
▁кӯ	-12.0197
hält	-12.0197
▁skład	-12.0197
▁ప్రతి	-12.0197
plevelse	-12.0197
လက်	-12.0197
▁американск	-12.0197
ярэд	-12.0197
έχει	-12.0197
▁ұсын	-12.0197
▁сторон	-12.0197
אָרט	-12.0197
ើង	-12.0197
▁шахс	-12.0197
▁подпис	-12.0197
▁നീ	-12.0198
▁Παρ	-12.0198
प्रमाण	-12.0198
▁weiter	-12.0198
σιακ	-12.0198
▁rodzin	-12.0198
ουσία	-12.0198
▁folosi	-12.0198
gesteld	-12.0198
ظهر	-12.0198
حكم	-12.0198
▁турист	-12.0198
strādā	-12.0199
یئر	-12.0199
குதி	-12.0199
▁function	-12.0199
ទាំង	-12.0199
▁момент	-12.0199
▁Frei	-12.0199
ಿಸಿದರ	-12.0199
▁resurs	-12.0199
▁Прав	-12.0199
▁transpar	-12.0199
خپل	-12.0199
قانون	-12.0199
තැන	-12.02
▁பேச	-12.02
ወጣ	-12.02
เพ	-12.02
সভা	-12.02
▁establi	-12.02
▁شعب	-12.02
하시	-12.02
▁эрх	-12.02
ెక్ట	-12.02
достиг	-12.0201
cycle	-12.0201
ಎಸ್	-12.0201
▁کړ	-12.0201
վեց	-12.0201
▁vitamin	-12.0201
هدف	-12.0201
මිනි	-12.0201
እንዲ	-12.0201
▁rychl	-12.0202
▁atbild	-12.0202
φερ	-12.0202
วง	-12.0202
חודש	-12.0202
gleich	-12.0202
▁client	-12.0203
हरू	-12.0203
▁Αγ	-12.0203
▁hormon	-12.0203
ближ	-12.0203
ΤΟ	-12.0203
▁obsah	-12.0203
אָג	-12.0203
▁Свет	-12.0204
יקו	-12.0204
▁ekspert	-12.0204
▁permett	-12.0204
▁ಒಂದ	-12.0205
▁Влад	-12.0205
▁Česk	-12.0206
گزار	-12.0206
▁calcul	-12.0206
ମିତ	-12.0207
اضي	-12.0207
▁boshla	-12.0207
▁emerg	-12.0207
▁директор	-12.0207
▁góð	-12.0207
daftar	-12.0208
▁project	-12.0208
しく	-12.0208
▁сонго	-12.0209
▁concern	-12.021
▁cambia	-12.0213
▁метал	-12.0213
percaya	-12.0214
husay	-12.0215
▁ძალ	-12.0216
ṣiṣ	-12.0216
liegen	-12.0217
thandiz	-12.0218
چک	-12.0218
బీ	-12.0219
▁distanc	-12.0219
АН	-12.0219
ტორ	-12.0221
ystyczn	-12.0222
▁busca	-12.0222
عهد	-12.0226
▁κοιν	-12.0227
fokus	-12.0228
▁թվ	-12.0228
friend	-12.0228
▁ustaw	-12.0228
しか	-12.0228
▁ಕೋ	-12.0229
▁oprem	-12.0229
▁reuni	-12.0229
અલ	-12.0229
▁લાગ	-12.0231
▁respectiv	-12.0232
▁contract	-12.0233
קשר	-12.0234
شاهد	-12.0234
పడి	-12.0235
▁mnoh	-12.0237
▁práv	-12.0241
CU	-12.0244
▁cresc	-12.0244
ख्या	-12.0244
vaizd	-12.0245
watch	-12.0246
சார	-12.0247
▁betyd	-12.0248
älte	-12.0248
▁дух	-12.025
▁महिला	-12.025
າງ	-12.0251
kázal	-12.0252
▁шаард	-12.0254
▁Drag	-12.0255
▁þess	-12.0257
▁једн	-12.0263
banyak	-12.0264
▁служб	-12.0265
tório	-12.0268
▁priorit	-12.0271
▁годин	-12.0272
okuthi	-12.0272
▁Direct	-12.0273
▁דער	-12.0273
▁балалар	-12.0276
ोष	-12.0277
óireacht	-12.0277
ರಣೆ	-12.0279
▁Nikol	-12.0279
kraft	-12.0282
බා	-12.0288
प्रकार	-12.029
▁дорог	-12.0291
▁obnov	-12.0295
▁excel	-12.0299
▁oldal	-12.0304
הודי	-12.0305
ॉर्	-12.0307
صلاح	-12.0307
▁shaq	-12.0311
panyol	-12.0319
десят	-12.0321
▁specialist	-12.0324
జన్	-12.0324
▁корисн	-12.0325
õtt	-12.0328
ሥራ	-12.0328
embri	-12.0329
عظم	-12.0331
ନ୍ୟ	-12.0343
▁economic	-12.0346
▁киш	-12.0347
ირებული	-12.0347
agarri	-12.0348
▁قارا	-12.0351
▁занят	-12.0354
▁Сам	-12.0355
▁correct	-12.0356
ଫଳ	-12.0357
chloss	-12.0358
ပေ	-12.0367
ACE	-12.0371
্যান্ড	-12.0374
▁Result	-12.0377
▁जाग	-12.0377
▁gweith	-12.0382
▁བྱ	-12.0385
ପାରିବ	-12.0388
aritza	-12.0399
тракт	-12.0404
λάβ	-12.0408
jonaln	-12.0419
▁მან	-12.0423
▁legend	-12.0426
▁Profes	-12.0436
நாள	-12.0439
▁Prv	-12.0444
Μ	-12.0445
Ц	-12.0449
េស	-12.0453
있	-12.0453
זוג	-12.0454
Э	-12.0455
ECT	-12.0457
pustil	-12.046
David	-12.0467
આ	-12.0478
▁চাল	-12.0479
▁никак	-12.0481
▁ਭਰ	-12.0485
▁المسا	-12.0485
पूर	-12.0492
encana	-12.0495
młod	-12.0497
סדר	-12.05
▁finančn	-12.0501
مثال	-12.0505
ိမ်	-12.0523
حقق	-12.0545
▁rent	-12.0576
fnod	-12.0578
طلق	-12.0579
▁driv	-12.058
поред	-12.0581
▁πολιτικ	-12.0584
خام	-12.0588
▁അതിന	-12.0589
▁உங்கள	-12.0596
ząc	-12.0597
awatan	-12.0601
▁झाल	-12.0609
کنند	-12.0613
െങ്കില	-12.0616
▁tendenc	-12.0617
ունք	-12.0617
▁lent	-12.0627
עניי	-12.0628
אנשי	-12.0633
خبار	-12.0635
wakil	-12.0642
ረጃ	-12.0643
šenj	-12.0644
▁føl	-12.0645
ORD	-12.0651
nehm	-12.0653
funktion	-12.0656
▁Гэ	-12.0678
▁боз	-12.0682
▁Polsk	-12.0687
מכיר	-12.0711
បាល	-12.0713
▁რამ	-12.0722
ивают	-12.0724
ুক্ত	-12.0732
mızı	-12.0738
▁mgb	-12.0744
ପୂର	-12.0757
ധാ	-12.0757
▁pevn	-12.0778
िंद	-12.0791
שירות	-12.0795
ගන්න	-12.0805
▁ئار	-12.0811
▁princ	-12.0849
ाऱ्या	-12.0856
ÄÑ	-12.0875
भएको	-12.0887
는데	-12.089
▁გვ	-12.0899
▁стил	-12.0901
▁մե	-12.0905
רגע	-12.0918
วย	-12.0938
sopan	-12.094
▁каза	-12.0941
▁beslut	-12.0941
▁गेल	-12.0956
▁fotograf	-12.0958
▁ölkə	-12.0959
ופע	-12.0963
klop	-12.0971
kehit	-12.0971
പൂ	-12.0986
powiedzi	-12.0995
ਮਿ	-12.1009
ייַט	-12.102
َهُ	-12.1025
പ്പെട	-12.1038
blanc	-12.1041
бильн	-12.1046
▁Bell	-12.1061
▁வார	-12.1061
osizion	-12.1074
ttämä	-12.1074
ÑÑÄÑ	-12.1079
▁फर्	-12.1088
ÇÑuÑ	-12.1098
▁Evrop	-12.1118
▁जिस	-12.1119
▁130	-12.1131
ატარ	-12.1146
quisit	-12.1152
שאל	-12.1154
▁представлен	-12.1156
▁цін	-12.1158
penyu	-12.117
いました	-12.1171
▁دوست	-12.1174
่อง	-12.1201
ిస్తున్నా	-12.1218
▁cilj	-12.1225
▁տարած	-12.1232
ניק	-12.1254
▁qualifi	-12.1261
▁профес	-12.127
▁alternat	-12.1283
sÑÄ	-12.1296
rebbe	-12.1297
мещени	-12.1301
▁すること	-12.1302
väčši	-12.1302
▁செயல்	-12.1303
습	-12.1303
▁աշխատ	-12.1304
▁միջ	-12.1304
ྐ	-12.1304
▁caracter	-12.1304
필	-12.1304
Ը	-12.1304
որհրդ	-12.1304
▁નિર્	-12.1304
[...]
